{
  "version": "1.0",
  "truncation": null,
  "padding": null,
  "added_tokens": [
    {
      "id": 0,
      "content": "<unk>",
      "single_word": false,
      "lstrip": false,
      "rstrip": false,
      "normalized": false,
      "special": true
    },
    {
      "id": 1,
      "content": "<pad>",
      "single_word": false,
      "lstrip": false,
      "rstrip": false,
      "normalized": false,
      "special": true
    },
    {
      "id": 2,
      "content": "<s>",
      "single_word": false,
      "lstrip": false,
      "rstrip": false,
      "normalized": false,
      "special": true
    },
    {
      "id": 3,
      "content": "</s>",
      "single_word": false,
      "lstrip": false,
      "rstrip": false,
      "normalized": false,
      "special": true
    },
    {
      "id": 4,
      "content": "\n",
      "single_word": false,
      "lstrip": false,
      "rstrip": false,
      "normalized": false,
      "special": true
    },
    {
      "id": 5,
      "content": "[USER]",
      "single_word": false,
      "lstrip": false,
      "rstrip": false,
      "normalized": false,
      "special": true
    },
    {
      "id": 6,
      "content": "[SYMBIO]",
      "single_word": false,
      "lstrip": false,
      "rstrip": false,
      "normalized": false,
      "special": true
    },
    {
      "id": 7,
      "content": "[SYSTEM]",
      "single_word": false,
      "lstrip": false,
      "rstrip": false,
      "normalized": false,
      "special": true
    }
  ],
  "normalizer": {
    "type": "Sequence",
    "normalizers": [
      {
        "type": "Replace",
        "pattern": {
          "String": "\\s+"
        },
        "content": " "
      },
      {
        "type": "NFKC"
      }
    ]
  },
  "pre_tokenizer": {
    "type": "Metaspace",
    "replacement": "▁",
    "prepend_scheme": "always",
    "split": true
  },
  "post_processor": null,
  "decoder": null,
  "model": {
    "type": "BPE",
    "dropout": null,
    "unk_token": "<unk>",
    "continuing_subword_prefix": null,
    "end_of_word_suffix": null,
    "fuse_unk": false,
    "byte_fallback": false,
    "ignore_merges": false,
    "vocab": {
      "<unk>": 0,
      "<pad>": 1,
      "<s>": 2,
      "</s>": 3,
      "\n": 4,
      "[USER]": 5,
      "[SYMBIO]": 6,
      "[SYSTEM]": 7,
      "\t": 8,
      " ": 9,
      "!": 10,
      "\"": 11,
      "#": 12,
      "$": 13,
      "%": 14,
      "&": 15,
      "'": 16,
      "(": 17,
      ")": 18,
      "*": 19,
      "+": 20,
      ",": 21,
      "-": 22,
      ".": 23,
      "/": 24,
      "0": 25,
      "1": 26,
      "2": 27,
      "3": 28,
      "4": 29,
      "5": 30,
      "6": 31,
      "7": 32,
      "8": 33,
      "9": 34,
      ":": 35,
      ";": 36,
      "<": 37,
      "=": 38,
      ">": 39,
      "?": 40,
      "@": 41,
      "A": 42,
      "B": 43,
      "C": 44,
      "D": 45,
      "E": 46,
      "F": 47,
      "G": 48,
      "H": 49,
      "I": 50,
      "J": 51,
      "K": 52,
      "L": 53,
      "M": 54,
      "N": 55,
      "O": 56,
      "P": 57,
      "Q": 58,
      "R": 59,
      "S": 60,
      "T": 61,
      "U": 62,
      "V": 63,
      "W": 64,
      "X": 65,
      "Y": 66,
      "Z": 67,
      "[": 68,
      "\\": 69,
      "]": 70,
      "^": 71,
      "_": 72,
      "`": 73,
      "a": 74,
      "b": 75,
      "c": 76,
      "d": 77,
      "e": 78,
      "f": 79,
      "g": 80,
      "h": 81,
      "i": 82,
      "j": 83,
      "k": 84,
      "l": 85,
      "m": 86,
      "n": 87,
      "o": 88,
      "p": 89,
      "q": 90,
      "r": 91,
      "s": 92,
      "t": 93,
      "u": 94,
      "v": 95,
      "w": 96,
      "x": 97,
      "y": 98,
      "z": 99,
      "{": 100,
      "|": 101,
      "}": 102,
      "~": 103,
      "¡": 104,
      "£": 105,
      "¤": 106,
      "§": 107,
      "©": 108,
      "«": 109,
      "¬": 110,
      "­": 111,
      "°": 112,
      "±": 113,
      "·": 114,
      "»": 115,
      "À": 116,
      "Á": 117,
      "Ä": 118,
      "Å": 119,
      "Æ": 120,
      "Ç": 121,
      "È": 122,
      "É": 123,
      "Ê": 124,
      "Í": 125,
      "Î": 126,
      "Ò": 127,
      "Ó": 128,
      "Ö": 129,
      "×": 130,
      "Ø": 131,
      "Ú": 132,
      "Ü": 133,
      "Þ": 134,
      "ß": 135,
      "à": 136,
      "á": 137,
      "â": 138,
      "ã": 139,
      "ä": 140,
      "å": 141,
      "æ": 142,
      "ç": 143,
      "è": 144,
      "é": 145,
      "ê": 146,
      "ë": 147,
      "ì": 148,
      "í": 149,
      "î": 150,
      "ï": 151,
      "ð": 152,
      "ñ": 153,
      "ò": 154,
      "ó": 155,
      "ô": 156,
      "õ": 157,
      "ö": 158,
      "÷": 159,
      "ø": 160,
      "ù": 161,
      "ú": 162,
      "û": 163,
      "ü": 164,
      "ý": 165,
      "þ": 166,
      "Ā": 167,
      "ā": 168,
      "ă": 169,
      "ą": 170,
      "Ć": 171,
      "ć": 172,
      "Č": 173,
      "č": 174,
      "ď": 175,
      "Đ": 176,
      "đ": 177,
      "ē": 178,
      "Ė": 179,
      "ė": 180,
      "ę": 181,
      "ě": 182,
      "ğ": 183,
      "ī": 184,
      "İ": 185,
      "ı": 186,
      "ļ": 187,
      "ľ": 188,
      "Ł": 189,
      "ł": 190,
      "ń": 191,
      "ň": 192,
      "Ō": 193,
      "ō": 194,
      "ŏ": 195,
      "Ő": 196,
      "ő": 197,
      "œ": 198,
      "Ř": 199,
      "ř": 200,
      "Ś": 201,
      "ś": 202,
      "Ş": 203,
      "ş": 204,
      "Š": 205,
      "š": 206,
      "ţ": 207,
      "Ť": 208,
      "ť": 209,
      "ū": 210,
      "ů": 211,
      "ų": 212,
      "ŵ": 213,
      "Ÿ": 214,
      "ź": 215,
      "Ż": 216,
      "ż": 217,
      "Ž": 218,
      "ž": 219,
      "Ə": 220,
      "ơ": 221,
      "ư": 222,
      "ǎ": 223,
      "ǐ": 224,
      "Ǧ": 225,
      "ǧ": 226,
      "Ș": 227,
      "ș": 228,
      "Ț": 229,
      "ț": 230,
      "ɑ": 231,
      "ə": 232,
      "ɛ": 233,
      "ɡ": 234,
      "ɣ": 235,
      "ɴ": 236,
      "ʃ": 237,
      "ʊ": 238,
      "ʒ": 239,
      "ʔ": 240,
      "ʞ": 241,
      "ʻ": 242,
      "ʾ": 243,
      "ʿ": 244,
      "ˆ": 245,
      "ː": 246,
      "̀": 247,
      "́": 248,
      "̃": 249,
      "̄": 250,
      "̆": 251,
      "̇": 252,
      "̈": 253,
      "̊": 254,
      "̋": 255,
      "̓": 256,
      "̯": 257,
      "̲": 258,
      "͡": 259,
      "Ά": 260,
      "Α": 261,
      "Β": 262,
      "Γ": 263,
      "Δ": 264,
      "Ε": 265,
      "Η": 266,
      "Θ": 267,
      "Ι": 268,
      "Κ": 269,
      "Λ": 270,
      "Μ": 271,
      "Ν": 272,
      "Ξ": 273,
      "Ο": 274,
      "Π": 275,
      "Ρ": 276,
      "Σ": 277,
      "Τ": 278,
      "Υ": 279,
      "Φ": 280,
      "Χ": 281,
      "Ω": 282,
      "ά": 283,
      "έ": 284,
      "ή": 285,
      "ί": 286,
      "α": 287,
      "β": 288,
      "γ": 289,
      "δ": 290,
      "ε": 291,
      "ζ": 292,
      "η": 293,
      "θ": 294,
      "ι": 295,
      "κ": 296,
      "λ": 297,
      "μ": 298,
      "ν": 299,
      "ξ": 300,
      "ο": 301,
      "π": 302,
      "ρ": 303,
      "ς": 304,
      "σ": 305,
      "τ": 306,
      "υ": 307,
      "φ": 308,
      "χ": 309,
      "ψ": 310,
      "ω": 311,
      "ό": 312,
      "ύ": 313,
      "ώ": 314,
      "Ϧ": 315,
      "ϧ": 316,
      "ϫ": 317,
      "ϯ": 318,
      "Є": 319,
      "А": 320,
      "Б": 321,
      "В": 322,
      "Г": 323,
      "Д": 324,
      "Е": 325,
      "Ж": 326,
      "З": 327,
      "И": 328,
      "Й": 329,
      "К": 330,
      "Л": 331,
      "М": 332,
      "Н": 333,
      "О": 334,
      "П": 335,
      "Р": 336,
      "С": 337,
      "Т": 338,
      "У": 339,
      "Ф": 340,
      "Х": 341,
      "Ц": 342,
      "Ч": 343,
      "Ш": 344,
      "Щ": 345,
      "Э": 346,
      "Ю": 347,
      "Я": 348,
      "а": 349,
      "б": 350,
      "в": 351,
      "г": 352,
      "д": 353,
      "е": 354,
      "ж": 355,
      "з": 356,
      "и": 357,
      "й": 358,
      "к": 359,
      "л": 360,
      "м": 361,
      "н": 362,
      "о": 363,
      "п": 364,
      "р": 365,
      "с": 366,
      "т": 367,
      "у": 368,
      "ф": 369,
      "х": 370,
      "ц": 371,
      "ч": 372,
      "ш": 373,
      "щ": 374,
      "ъ": 375,
      "ы": 376,
      "ь": 377,
      "э": 378,
      "ю": 379,
      "я": 380,
      "ё": 381,
      "є": 382,
      "і": 383,
      "ї": 384,
      "ћ": 385,
      "ў": 386,
      "қ": 387,
      "ұ": 388,
      "Ә": 389,
      "ә": 390,
      "Ա": 391,
      "Գ": 392,
      "Խ": 393,
      "Ո": 394,
      "Վ": 395,
      "ա": 396,
      "դ": 397,
      "ե": 398,
      "ժ": 399,
      "ի": 400,
      "կ": 401,
      "ղ": 402,
      "մ": 403,
      "յ": 404,
      "ն": 405,
      "ո": 406,
      "ս": 407,
      "ր": 408,
      "ւ": 409,
      "ְ": 410,
      "ִ": 411,
      "ַ": 412,
      "ֹ": 413,
      "ֿ": 414,
      "ׁ": 415,
      "א": 416,
      "ג": 417,
      "ד": 418,
      "ה": 419,
      "ו": 420,
      "ח": 421,
      "ט": 422,
      "י": 423,
      "כ": 424,
      "ל": 425,
      "מ": 426,
      "ן": 427,
      "נ": 428,
      "ס": 429,
      "ע": 430,
      "פ": 431,
      "ץ": 432,
      "ר": 433,
      "ש": 434,
      "װ": 435,
      "آ": 436,
      "أ": 437,
      "إ": 438,
      "ا": 439,
      "ب": 440,
      "ة": 441,
      "ت": 442,
      "ج": 443,
      "ح": 444,
      "خ": 445,
      "د": 446,
      "ر": 447,
      "ز": 448,
      "س": 449,
      "ش": 450,
      "ص": 451,
      "ط": 452,
      "ظ": 453,
      "ع": 454,
      "ف": 455,
      "ق": 456,
      "ك": 457,
      "ل": 458,
      "م": 459,
      "ن": 460,
      "ه": 461,
      "و": 462,
      "ى": 463,
      "ي": 464,
      "ِ": 465,
      "چ": 466,
      "ک": 467,
      "ی": 468,
      "क": 469,
      "ठ": 470,
      "थ": 471,
      "द": 472,
      "ध": 473,
      "न": 474,
      "भ": 475,
      "म": 476,
      "य": 477,
      "र": 478,
      "ल": 479,
      "व": 480,
      "श": 481,
      "ष": 482,
      "स": 483,
      "ा": 484,
      "ि": 485,
      "ी": 486,
      "ु": 487,
      "े": 488,
      "्": 489,
      "আ": 490,
      "ক": 491,
      "চ": 492,
      "ত": 493,
      "দ": 494,
      "ন": 495,
      "ব": 496,
      "ম": 497,
      "র": 498,
      "হ": 499,
      "ী": 500,
      "ো": 501,
      "্": 502,
      "க": 503,
      "ன": 504,
      "ர": 505,
      "ு": 506,
      "ூ": 507,
      "்": 508,
      "ക": 509,
      "ജ": 510,
      "ണ": 511,
      "ബ": 512,
      "മ": 513,
      "യ": 514,
      "ര": 515,
      "സ": 516,
      "ി": 517,
      "ു": 518,
      "െ": 519,
      "്": 520,
      "ൻ": 521,
      "ග": 522,
      "ම": 523,
      "ව": 524,
      "ී": 525,
      "ු": 526,
      "ก": 527,
      "ค": 528,
      "ง": 529,
      "จ": 530,
      "ช": 531,
      "ฒ": 532,
      "ณ": 533,
      "ด": 534,
      "ต": 535,
      "ท": 536,
      "ธ": 537,
      "น": 538,
      "บ": 539,
      "ผ": 540,
      "พ": 541,
      "ภ": 542,
      "ม": 543,
      "ย": 544,
      "ร": 545,
      "ล": 546,
      "ว": 547,
      "ศ": 548,
      "ส": 549,
      "ห": 550,
      "อ": 551,
      "ะ": 552,
      "ั": 553,
      "า": 554,
      "ิ": 555,
      "ี": 556,
      "ื": 557,
      "ุ": 558,
      "ู": 559,
      "เ": 560,
      "โ": 561,
      "่": 562,
      "้": 563,
      "์": 564,
      "ํ": 565,
      "က": 566,
      "င": 567,
      "ဘ": 568,
      "ရ": 569,
      "သ": 570,
      "ာ": 571,
      "ိ": 572,
      "ု": 573,
      "ေ": 574,
      "း": 575,
      "်": 576,
      "ა": 577,
      "გ": 578,
      "დ": 579,
      "ე": 580,
      "თ": 581,
      "ი": 582,
      "კ": 583,
      "ლ": 584,
      "მ": 585,
      "ნ": 586,
      "ო": 587,
      "პ": 588,
      "რ": 589,
      "ს": 590,
      "ტ": 591,
      "უ": 592,
      "ფ": 593,
      "ქ": 594,
      "შ": 595,
      "ც": 596,
      "წ": 597,
      "ხ": 598,
      "ᄉ": 599,
      "ក": 600,
      "ង": 601,
      "ន": 602,
      "វ": 603,
      "ស": 604,
      "ា": 605,
      "េ": 606,
      "៉": 607,
      "់": 608,
      "ḏ": 609,
      "ḗ": 610,
      "Ḥ": 611,
      "ḥ": 612,
      "Ḫ": 613,
      "ḫ": 614,
      "ṉ": 615,
      "ṓ": 616,
      "ṣ": 617,
      "Ṭ": 618,
      "ṭ": 619,
      "ẓ": 620,
      "ạ": 621,
      "ả": 622,
      "ễ": 623,
      "ệ": 624,
      "ọ": 625,
      "ố": 626,
      "ổ": 627,
      "ộ": 628,
      "ờ": 629,
      "ở": 630,
      "ợ": 631,
      "ἀ": 632,
      "ἄ": 633,
      "Ἀ": 634,
      "ἐ": 635,
      "ἔ": 636,
      "ἕ": 637,
      "Ἐ": 638,
      "ἰ": 639,
      "ἱ": 640,
      "Ἰ": 641,
      "ὁ": 642,
      "ὴ": 643,
      "ῃ": 644,
      "ῖ": 645,
      "ῦ": 646,
      "ῶ": 647,
      "​": 648,
      "‐": 649,
      "–": 650,
      "—": 651,
      "‘": 652,
      "’": 653,
      "‚": 654,
      "“": 655,
      "”": 656,
      "„": 657,
      "†": 658,
      "•": 659,
      "‰": 660,
      "′": 661,
      "‹": 662,
      "›": 663,
      "‿": 664,
      "⁄": 665,
      "₦": 666,
      "€": 667,
      "←": 668,
      "↑": 669,
      "→": 670,
      "↓": 671,
      "↕": 672,
      "↩": 673,
      "⇐": 674,
      "∀": 675,
      "∃": 676,
      "∅": 677,
      "∈": 678,
      "∉": 679,
      "−": 680,
      "∗": 681,
      "∘": 682,
      "√": 683,
      "∞": 684,
      "∧": 685,
      "∨": 686,
      "∩": 687,
      "∪": 688,
      "∴": 689,
      "∼": 690,
      "∾": 691,
      "≅": 692,
      "≈": 693,
      "≍": 694,
      "≠": 695,
      "≡": 696,
      "≢": 697,
      "≤": 698,
      "≥": 699,
      "⊂": 700,
      "⊆": 701,
      "⊏": 702,
      "⊑": 703,
      "⊸": 704,
      "⋄": 705,
      "⋆": 706,
      "⋈": 707,
      "⌊": 708,
      "⌜": 709,
      "⍟": 710,
      "␤": 711,
      "⑂": 712,
      "─": 713,
      "│": 714,
      "┌": 715,
      "┐": 716,
      "└": 717,
      "┘": 718,
      "├": 719,
      "┤": 720,
      "═": 721,
      "║": 722,
      "╔": 723,
      "╗": 724,
      "╚": 725,
      "╝": 726,
      "▁": 727,
      "▄": 728,
      "█": 729,
      "□": 730,
      "△": 731,
      "○": 732,
      "◶": 733,
      "☃": 734,
      "♡": 735,
      "♢": 736,
      "♤": 737,
      "♥": 738,
      "♧": 739,
      "⚭": 740,
      "✪": 741,
      "⟜": 742,
      "⟨": 743,
      "⟩": 744,
      "⥊": 745,
      "⭐": 746,
      "ⲁ": 747,
      "ⲉ": 748,
      "ⲏ": 749,
      "ⲑ": 750,
      "ⲓ": 751,
      "ⲕ": 752,
      "ⲙ": 753,
      "ⲝ": 754,
      "ⲟ": 755,
      "ⲥ": 756,
      "ⲧ": 757,
      "ⲩ": 758,
      "ⲫ": 759,
      "ⲭ": 760,
      "ⲯ": 761,
      "ⲱ": 762,
      "ⳉ": 763,
      "ⴰ": 764,
      "ⴳ": 765,
      "ⴷ": 766,
      "ⵇ": 767,
      "ⵉ": 768,
      "ⵍ": 769,
      "ⵎ": 770,
      "ⵏ": 771,
      "ⵕ": 772,
      "ⵜ": 773,
      "ⵡ": 774,
      "ⵢ": 775,
      "ⵣ": 776,
      "「": 777,
      "」": 778,
      "『": 779,
      "』": 780,
      "あ": 781,
      "い": 782,
      "う": 783,
      "え": 784,
      "お": 785,
      "が": 786,
      "き": 787,
      "ぐ": 788,
      "こ": 789,
      "ご": 790,
      "す": 791,
      "た": 792,
      "だ": 793,
      "ち": 794,
      "っ": 795,
      "て": 796,
      "と": 797,
      "に": 798,
      "の": 799,
      "ま": 800,
      "め": 801,
      "ら": 802,
      "り": 803,
      "を": 804,
      "ィ": 805,
      "カ": 806,
      "タ": 807,
      "ツ": 808,
      "ナ": 809,
      "ニ": 810,
      "ビ": 811,
      "フ": 812,
      "ホ": 813,
      "ラ": 814,
      "レ": 815,
      "ン": 816,
      "・": 817,
      "ー": 818,
      "一": 819,
      "七": 820,
      "三": 821,
      "不": 822,
      "世": 823,
      "丘": 824,
      "丝": 825,
      "中": 826,
      "久": 827,
      "之": 828,
      "也": 829,
      "事": 830,
      "二": 831,
      "井": 832,
      "交": 833,
      "京": 834,
      "人": 835,
      "仁": 836,
      "今": 837,
      "介": 838,
      "仏": 839,
      "伊": 840,
      "会": 841,
      "佐": 842,
      "作": 843,
      "俊": 844,
      "保": 845,
      "信": 846,
      "俳": 847,
      "倭": 848,
      "備": 849,
      "儒": 850,
      "先": 851,
      "光": 852,
      "児": 853,
      "兒": 854,
      "全": 855,
      "八": 856,
      "兵": 857,
      "典": 858,
      "内": 859,
      "出": 860,
      "則": 861,
      "前": 862,
      "剛": 863,
      "助": 864,
      "動": 865,
      "化": 866,
      "北": 867,
      "区": 868,
      "医": 869,
      "十": 870,
      "千": 871,
      "协": 872,
      "南": 873,
      "原": 874,
      "叢": 875,
      "句": 876,
      "可": 877,
      "史": 878,
      "吉": 879,
      "呉": 880,
      "告": 881,
      "命": 882,
      "和": 883,
      "唐": 884,
      "唫": 885,
      "問": 886,
      "喰": 887,
      "国": 888,
      "園": 889,
      "垣": 890,
      "堂": 891,
      "報": 892,
      "増": 893,
      "士": 894,
      "壷": 895,
      "外": 896,
      "多": 897,
      "大": 898,
      "天": 899,
      "夫": 900,
      "奈": 901,
      "奨": 902,
      "女": 903,
      "好": 904,
      "孝": 905,
      "学": 906,
      "孫": 907,
      "學": 908,
      "宏": 909,
      "宗": 910,
      "宣": 911,
      "宮": 912,
      "家": 913,
      "寅": 914,
      "富": 915,
      "寺": 916,
      "射": 917,
      "小": 918,
      "尔": 919,
      "尚": 920,
      "尼": 921,
      "尾": 922,
      "山": 923,
      "島": 924,
      "崎": 925,
      "川": 926,
      "巴": 927,
      "帝": 928,
      "師": 929,
      "常": 930,
      "幡": 931,
      "年": 932,
      "幻": 933,
      "広": 934,
      "彦": 935,
      "後": 936,
      "徐": 937,
      "徳": 938,
      "心": 939,
      "志": 940,
      "怀": 941,
      "性": 942,
      "惺": 943,
      "所": 944,
      "手": 945,
      "支": 946,
      "教": 947,
      "斂": 948,
      "文": 949,
      "斎": 950,
      "料": 951,
      "新": 952,
      "日": 953,
      "昂": 954,
      "明": 955,
      "星": 956,
      "晩": 957,
      "書": 958,
      "最": 959,
      "月": 960,
      "朝": 961,
      "木": 962,
      "末": 963,
      "本": 964,
      "杉": 965,
      "東": 966,
      "松": 967,
      "板": 968,
      "柳": 969,
      "査": 970,
      "格": 971,
      "森": 972,
      "椿": 973,
      "楽": 974,
      "樂": 975,
      "樓": 976,
      "橋": 977,
      "次": 978,
      "歌": 979,
      "武": 980,
      "歴": 981,
      "死": 982,
      "残": 983,
      "比": 984,
      "毘": 985,
      "民": 986,
      "气": 987,
      "気": 988,
      "氣": 989,
      "永": 990,
      "沙": 991,
      "河": 992,
      "油": 993,
      "治": 994,
      "法": 995,
      "泰": 996,
      "洋": 997,
      "洞": 998,
      "洲": 999,
      "派": 1000,
      "浪": 1001,
      "淀": 1002,
      "淳": 1003,
      "游": 1004,
      "源": 1005,
      "瀬": 1006,
      "灸": 1007,
      "為": 1008,
      "爪": 1009,
      "版": 1010,
      "特": 1011,
      "王": 1012,
      "理": 1013,
      "生": 1014,
      "産": 1015,
      "田": 1016,
      "电": 1017,
      "略": 1018,
      "異": 1019,
      "疾": 1020,
      "病": 1021,
      "療": 1022,
      "発": 1023,
      "皇": 1024,
      "益": 1025,
      "盛": 1026,
      "相": 1027,
      "看": 1028,
      "真": 1029,
      "眼": 1030,
      "矢": 1031,
      "砂": 1032,
      "研": 1033,
      "祐": 1034,
      "神": 1035,
      "祥": 1036,
      "禍": 1037,
      "秀": 1038,
      "秋": 1039,
      "科": 1040,
      "究": 1041,
      "窩": 1042,
      "立": 1043,
      "章": 1044,
      "童": 1045,
      "籍": 1046,
      "純": 1047,
      "細": 1048,
      "終": 1049,
      "絲": 1050,
      "經": 1051,
      "編": 1052,
      "耀": 1053,
      "老": 1054,
      "考": 1055,
      "者": 1056,
      "育": 1057,
      "胤": 1058,
      "脚": 1059,
      "芭": 1060,
      "花": 1061,
      "芸": 1062,
      "英": 1063,
      "著": 1064,
      "蕉": 1065,
      "薬": 1066,
      "藤": 1067,
      "蛇": 1068,
      "術": 1069,
      "街": 1070,
      "衞": 1071,
      "表": 1072,
      "袋": 1073,
      "西": 1074,
      "覧": 1075,
      "観": 1076,
      "角": 1077,
      "解": 1078,
      "記": 1079,
      "診": 1080,
      "詭": 1081,
      "調": 1082,
      "論": 1083,
      "諧": 1084,
      "護": 1085,
      "诡": 1086,
      "谷": 1087,
      "貴": 1088,
      "質": 1089,
      "軍": 1090,
      "辞": 1091,
      "辰": 1092,
      "辺": 1093,
      "通": 1094,
      "連": 1095,
      "進": 1096,
      "道": 1097,
      "達": 1098,
      "那": 1099,
      "郁": 1100,
      "郎": 1101,
      "里": 1102,
      "野": 1103,
      "金": 1104,
      "鍼": 1105,
      "钦": 1106,
      "長": 1107,
      "門": 1108,
      "間": 1109,
      "閣": 1110,
      "閼": 1111,
      "阿": 1112,
      "院": 1113,
      "陵": 1114,
      "険": 1115,
      "雄": 1116,
      "雅": 1117,
      "集": 1118,
      "雌": 1119,
      "雪": 1120,
      "雲": 1121,
      "電": 1122,
      "青": 1123,
      "音": 1124,
      "題": 1125,
      "養": 1126,
      "馬": 1127,
      "髄": 1128,
      "高": 1129,
      "麿": 1130,
      "黒": 1131,
      "거": 1132,
      "공": 1133,
      "굴": 1134,
      "기": 1135,
      "남": 1136,
      "내": 1137,
      "녀": 1138,
      "눈": 1139,
      "는": 1140,
      "다": 1141,
      "도": 1142,
      "란": 1143,
      "랑": 1144,
      "레": 1145,
      "리": 1146,
      "말": 1147,
      "명": 1148,
      "모": 1149,
      "묻": 1150,
      "물": 1151,
      "별": 1152,
      "봉": 1153,
      "빌": 1154,
      "사": 1155,
      "설": 1156,
      "성": 1157,
      "소": 1158,
      "얼": 1159,
      "에": 1160,
      "역": 1161,
      "웅": 1162,
      "을": 1163,
      "일": 1164,
      "잔": 1165,
      "죽": 1166,
      "차": 1167,
      "칸": 1168,
      "타": 1169,
      "해": 1170,
      "혹": 1171,
      "": 1172,
      "": 1173,
      "️": 1174,
      "﻿": 1175,
      "🇦": 1176,
      "🇺": 1177,
      "🌍": 1178,
      "🌎": 1179,
      "🍉": 1180,
      "🍋": 1181,
      "🍌": 1182,
      "🍍": 1183,
      "🍓": 1184,
      "🏡": 1185,
      "🐭": 1186,
      "💰": 1187,
      "📈": 1188,
      "📍": 1189,
      "🔪": 1190,
      "😀": 1191,
      "😄": 1192,
      "😈": 1193,
      "😍": 1194,
      "😎": 1195,
      "🙂": 1196,
      "🚀": 1197,
      "🤍": 1198,
      "er": 1199,
      "en": 1200,
      "ch": 1201,
      "in": 1202,
      "▁d": 1203,
      "ie": 1204,
      "un": 1205,
      "st": 1206,
      "an": 1207,
      "ei": 1208,
      "on": 1209,
      "ar": 1210,
      "es": 1211,
      "▁a": 1212,
      "▁S": 1213,
      "te": 1214,
      "▁s": 1215,
      "▁A": 1216,
      "ein": 1217,
      "▁w": 1218,
      "or": 1219,
      "it": 1220,
      "und": 1221,
      "is": 1222,
      "al": 1223,
      "▁v": 1224,
      "▁der": 1225,
      "▁1": 1226,
      "ge": 1227,
      "at": 1228,
      "ur": 1229,
      "▁b": 1230,
      "▁und": 1231,
      "el": 1232,
      "ich": 1233,
      "as": 1234,
      "▁D": 1235,
      "▁in": 1236,
      "▁die": 1237,
      "▁B": 1238,
      "ig": 1239,
      "▁ein": 1240,
      "▁m": 1241,
      "de": 1242,
      "▁i": 1243,
      "us": 1244,
      "ung": 1245,
      "▁\\": 1246,
      "ro": 1247,
      "▁z": 1248,
      "▁M": 1249,
      "▁\n": 1250,
      ".\n": 1251,
      "le": 1252,
      "▁F": 1253,
      "▁f": 1254,
      "▁=": 1255,
      "▁t": 1256,
      "em": 1257,
      "▁E": 1258,
      "hr": 1259,
      "ten": 1260,
      "ter": 1261,
      "▁K": 1262,
      "▁n": 1263,
      "▁2": 1264,
      "▁P": 1265,
      "ion": 1266,
      "▁(": 1267,
      "am": 1268,
      "▁G": 1269,
      "▁R": 1270,
      "ol": 1271,
      "▁W": 1272,
      "sch": 1273,
      "▁T": 1274,
      "and": 1275,
      "▁er": 1276,
      "um": 1277,
      "re": 1278,
      "ra": 1279,
      "▁L": 1280,
      "uf": 1281,
      "isch": 1282,
      "▁von": 1283,
      "--": 1284,
      "ot": 1285,
      "et": 1286,
      "den": 1287,
      "▁I": 1288,
      "//": 1289,
      "▁H": 1290,
      "ber": 1291,
      "il": 1292,
      "ut": 1293,
      "gen": 1294,
      "ier": 1295,
      "der": 1296,
      "▁h": 1297,
      "ck": 1298,
      "om": 1299,
      "▁V": 1300,
      "ent": 1301,
      "ht": 1302,
      "▁N": 1303,
      "ach": 1304,
      "he": 1305,
      "▁J": 1306,
      "▁den": 1307,
      "▁C": 1308,
      "▁k": 1309,
      "lich": 1310,
      "▁mit": 1311,
      "▁19": 1312,
      "se": 1313,
      "ing": 1314,
      "▁al": 1315,
      "eit": 1316,
      "▁o": 1317,
      "rig": 1318,
      "▁ge": 1319,
      "▁c": 1320,
      "▁p": 1321,
      "▁des": 1322,
      "▁das": 1323,
      "row": 1324,
      "▁\"": 1325,
      "ür": 1326,
      "right": 1327,
      "▁im": 1328,
      "ir": 1329,
      "▁#": 1330,
      "arrow": 1331,
      "▁\\right": 1332,
      "▁\\rightarrow": 1333,
      "▁zu": 1334,
      "▁an": 1335,
      "▁l": 1336,
      "ab": 1337,
      "▁g": 1338,
      "rei": 1339,
      "▁Q": 1340,
      "▁ver": 1341,
      "▁be": 1342,
      "▁St": 1343,
      "##": 1344,
      "kt": 1345,
      "dot": 1346,
      "▁\\c": 1347,
      "▁\\cdot": 1348,
      "▁20": 1349,
      "▁3": 1350,
      "▁O": 1351,
      "▁Z": 1352,
      "▁wur": 1353,
      "==": 1354,
      "▁auf": 1355,
      "▁A:": 1356,
      "▁Q:": 1357,
      "ann": 1358,
      "▁Die": 1359,
      "au": 1360,
      "▁U": 1361,
      "▁ist": 1362,
      "ell": 1363,
      "en,": 1364,
      "▁//": 1365,
      "uch": 1366,
      "▁als": 1367,
      "▁Sch": 1368,
      "ist": 1369,
      "ed": 1370,
      "ik": 1371,
      "▁dem": 1372,
      "ischen": 1373,
      "iel": 1374,
      "▁st": 1375,
      "▁In": 1376,
      "af": 1377,
      "ahr": 1378,
      "▁the": 1379,
      "iv": 1380,
      "▁wurde": 1381,
      "▁für": 1382,
      "ct": 1383,
      "----": 1384,
      "▁r": 1385,
      "▁eine": 1386,
      "▁4": 1387,
      "sen": 1388,
      "ul": 1389,
      "ben": 1390,
      "im": 1391,
      "che": 1392,
      "icht": 1393,
      "ation": 1394,
      "ind": 1395,
      "▁Ver": 1396,
      "ah": 1397,
      "lo": 1398,
      ")\n": 1399,
      "▁e": 1400,
      "▁war": 1401,
      "▁aus": 1402,
      "ic": 1403,
      "▁Re": 1404,
      "▁sich": 1405,
      "ad": 1406,
      "▁Er": 1407,
      "t.": 1408,
      "lä": 1409,
      "sp": 1410,
      "▁sein": 1411,
      "wei": 1412,
      "ff": 1413,
      "t,": 1414,
      "▁An": 1415,
      "▁bei": 1416,
      "▁-": 1417,
      "ien": 1418,
      "▁un": 1419,
      "▁x": 1420,
      "ern": 1421,
      "eich": 1422,
      "hn": 1423,
      "ri": 1424,
      "men": 1425,
      "ru": 1426,
      "ag": 1427,
      "än": 1428,
      "end": 1429,
      "op": 1430,
      ";\n": 1431,
      "ort": 1432,
      "ver": 1433,
      "über": 1434,
      "▁and": 1435,
      "est": 1436,
      "ow": 1437,
      "00": 1438,
      "▁5": 1439,
      "all": 1440,
      "▁Jahr": 1441,
      "schaf": 1442,
      "eh": 1443,
      "eil": 1444,
      "ser": 1445,
      "en.": 1446,
      "▁sind": 1447,
      "ers": 1448,
      "▁sie": 1449,
      "▁===": 1450,
      "rie": 1451,
      "▁*": 1452,
      ";;": 1453,
      "▁de": 1454,
      "ts": 1455,
      "ang": 1456,
      "▁to": 1457,
      "och": 1458,
      "▁re": 1459,
      "aus": 1460,
      "####": 1461,
      "▁Sie": 1462,
      "▁nach": 1463,
      "ün": 1464,
      "urch": 1465,
      "▁über": 1466,
      "▁um": 1467,
      "eu": 1468,
      "▁18": 1469,
      "esch": 1470,
      "▁0": 1471,
      "ische": 1472,
      "pi": 1473,
      "▁of": 1474,
      "od": 1475,
      "▁Sp": 1476,
      "ungen": 1477,
      "▁wir": 1478,
      "ger": 1479,
      "os": 1480,
      "▁{": 1481,
      "▁am": 1482,
      "ehr": 1483,
      "her": 1484,
      "▁j": 1485,
      "▁Ein": 1486,
      "ate": 1487,
      "pt": 1488,
      "▁Ar": 1489,
      "ess": 1490,
      "lie": 1491,
      "▁is": 1492,
      "▁ar": 1493,
      "▁wer": 1494,
      "▁Un": 1495,
      "▁auch": 1496,
      "läche": 1497,
      "pp": 1498,
      "ass": 1499,
      "▁Al": 1500,
      "▁bis": 1501,
      "la": 1502,
      "▁sch": 1503,
      "sten": 1504,
      "▁Fläche": 1505,
      "ub": 1506,
      "▁zur": 1507,
      "▁einer": 1508,
      "^2": 1509,
      "ste": 1510,
      "ran": 1511,
      "ster": 1512,
      "ame": 1513,
      "▁\\pi": 1514,
      "ungs": 1515,
      "▁Der": 1516,
      "▁zum": 1517,
      "art": 1518,
      "og": 1519,
      "▁th": 1520,
      "enn": 1521,
      "ert": 1522,
      "▁Be": 1523,
      "▁werden": 1524,
      "▁Pro": 1525,
      "ug": 1526,
      "▁ihr": 1527,
      "ler": 1528,
      "--------": 1529,
      "▁6": 1530,
      "ör": 1531,
      "tz": 1532,
      "▁durch": 1533,
      "▁nicht": 1534,
      "▁7": 1535,
      "▁wie": 1536,
      "tel": 1537,
      "▁unter": 1538,
      "▁201": 1539,
      "▁[": 1540,
      "ück": 1541,
      "▁sp": 1542,
      "igen": 1543,
      "▁ent": 1544,
      "////": 1545,
      "id": 1546,
      "ce": 1547,
      "▁}": 1548,
      "▁En": 1549,
      "etz": 1550,
      "ön": 1551,
      "▁es": 1552,
      "▁wird": 1553,
      "▁ab": 1554,
      "),": 1555,
      "iz": 1556,
      "▁hat": 1557,
      "hal": 1558,
      "gr": 1559,
      ":\n": 1560,
      "▁vor": 1561,
      "stell": 1562,
      "yp": 1563,
      "omm": 1564,
      "qu": 1565,
      "chte": 1566,
      "ak": 1567,
      "▁einem": 1568,
      "ction": 1569,
      "▁Ge": 1570,
      "▁'": 1571,
      "t.\n": 1572,
      "▁le": 1573,
      "▁De": 1574,
      "ith": 1575,
      "▁+": 1576,
      "▁Im": 1577,
      "be": 1578,
      "schaft": 1579,
      "th": 1580,
      "ühr": 1581,
      "orm": 1582,
      "▁8": 1583,
      "▁dass": 1584,
      "len": 1585,
      "reis": 1586,
      "ige": 1587,
      "tern": 1588,
      "▁einen": 1589,
      "utsch": 1590,
      "ap": 1591,
      "rä": 1592,
      "▁oder": 1593,
      "ust": 1594,
      "e,": 1595,
      "ord": 1596,
      "ktion": 1597,
      "▁200": 1598,
      "ss": 1599,
      "▁9": 1600,
      "ft": 1601,
      "geb": 1602,
      "ne": 1603,
      "int": 1604,
      "rit": 1605,
      "ib": 1606,
      "▁10": 1607,
      "▁ex": 1608,
      "ay": 1609,
      "▁y": 1610,
      "gel": 1611,
      "▁Mit": 1612,
      "chen": 1613,
      "nen": 1614,
      "av": 1615,
      "auf": 1616,
      "mer": 1617,
      "▁Das": 1618,
      "▁Nach": 1619,
      "oll": 1620,
      "▁Aus": 1621,
      "lichen": 1622,
      "är": 1623,
      "eiter": 1624,
      "ill": 1625,
      "ok": 1626,
      "hl": 1627,
      "ring": 1628,
      "▁Was": 1629,
      "▁Ab": 1630,
      "▁|": 1631,
      "ud": 1632,
      "ine": 1633,
      "fra": 1634,
      "▁15": 1635,
      "20": 1636,
      "ät": 1637,
      "▁=>": 1638,
      "▁{\n": 1639,
      "▁:": 1640,
      "..": 1641,
      "itz": 1642,
      "ant": 1643,
      "ou": 1644,
      "\"\n": 1645,
      "▁}\n": 1646,
      "▁for": 1647,
      "▁$": 1648,
      "ahl": 1649,
      "▁0.": 1650,
      "uss": 1651,
      "ob": 1652,
      "if": 1653,
      "omp": 1654,
      "▁us": 1655,
      "?\n": 1656,
      "ari": 1657,
      "wer": 1658,
      "je": 1659,
      "▁===\n": 1660,
      "ard": 1661,
      "ho": 1662,
      "ue": 1663,
      "land": 1664,
      "▁Auf": 1665,
      "per": 1666,
      "atz": 1667,
      "gt": 1668,
      "ierte": 1669,
      "amm": 1670,
      "ont": 1671,
      "ende": 1672,
      "age": 1673,
      "ech": 1674,
      "▁Lö": 1675,
      "elt": 1676,
      "iert": 1677,
      "▁zwei": 1678,
      "ick": 1679,
      "▁/": 1680,
      "▁Ber": 1681,
      "====": 1682,
      "fer": 1683,
      "ner": 1684,
      "ähr": 1685,
      "pr": 1686,
      "▁17": 1687,
      "ov": 1688,
      "▁so": 1689,
      "▁Le": 1690,
      "hen": 1691,
      "dem": 1692,
      "ial": 1693,
      "ark": 1694,
      "▁Kreis": 1695,
      "pl": 1696,
      "########": 1697,
      "tur": 1698,
      "ges": 1699,
      "▁Or": 1700,
      "liche": 1701,
      "fol": 1702,
      "-S": 1703,
      "ischer": 1704,
      "▁12": 1705,
      "eg": 1706,
      "▁Gr": 1707,
      "▁fun": 1708,
      "▁Am": 1709,
      "ohn": 1710,
      "▁pro": 1711,
      "ym": 1712,
      "▁with": 1713,
      "▁<": 1714,
      "10": 1715,
      "▁Rechte": 1716,
      "fin": 1717,
      "s,": 1718,
      "anz": 1719,
      "▁199": 1720,
      "reich": 1721,
      "äl": 1722,
      "19": 1723,
      "▁16": 1724,
      ");\n": 1725,
      "▁Ch": 1726,
      "4\n": 1727,
      "eiten": 1728,
      "}{": 1729,
      "ition": 1730,
      "arb": 1731,
      "▁Ma": 1732,
      "uß": 1733,
      "▁Löse": 1734,
      "\",": 1735,
      "▁can": 1736,
      "frac": 1737,
      "▁Rechteck": 1738,
      "frac{": 1739,
      "▁\\frac{": 1740,
      "▁Vor": 1741,
      "▁sow": 1742,
      "tra": 1743,
      "▁r=": 1744,
      "▁r^2": 1745,
      "▁wurden": 1746,
      "s\n": 1747,
      "io": 1748,
      "▁Se": 1749,
      "utz": 1750,
      "▁%": 1751,
      "ia": 1752,
      "▁kön": 1753,
      "▁val": 1754,
      "ast": 1755,
      "▁The": 1756,
      "▁pr": 1757,
      "eine": 1758,
      "enz": 1759,
      "able": 1760,
      "▁11": 1761,
      "adt": 1762,
      "lass": 1763,
      "bur": 1764,
      "en.\n": 1765,
      "▁13": 1766,
      "lin": 1767,
      "ens": 1768,
      "pf": 1769,
      "▁–": 1770,
      "▁ander": 1771,
      "2\n": 1772,
      "tem": 1773,
      "▁zw": 1774,
      "▁it": 1775,
      "▁(*": 1776,
      "rat": 1777,
      ").": 1778,
      "our": 1779,
      "5\n": 1780,
      "▁Th": 1781,
      "▁kann": 1782,
      "s.": 1783,
      ";;;;": 1784,
      "te,": 1785,
      "oc": 1786,
      "▁Bei": 1787,
      "ive": 1788,
      "▁or": 1789,
      "ex": 1790,
      "▁mehr": 1791,
      "cht": 1792,
      "0\n": 1793,
      "▁are": 1794,
      "▁Her": 1795,
      "▁Land": 1796,
      "eits": 1797,
      "▁on": 1798,
      "6\n": 1799,
      "ack": 1800,
      "▁gew": 1801,
      "spiel": 1802,
      "zu": 1803,
      "führ": 1804,
      "▁con": 1805,
      "tet": 1806,
      "ale": 1807,
      "▁dar": 1808,
      "ray": 1809,
      "alt": 1810,
      "ild": 1811,
      "enden": 1812,
      "▁function": 1813,
      "▁--": 1814,
      "▁Br": 1815,
      "unktion": 1816,
      "roß": 1817,
      "▁14": 1818,
      "nis": 1819,
      "////////": 1820,
      "form": 1821,
      "▁neu": 1822,
      "ierung": 1823,
      "▁lie": 1824,
      "▁Zeit": 1825,
      "▁sowie": 1826,
      "▁verw": 1827,
      "ode": 1828,
      "ac": 1829,
      "ließ": 1830,
      "▁weiter": 1831,
      "bar": 1832,
      "lei": 1833,
      "sel": 1834,
      "▁198": 1835,
      "zeich": 1836,
      "ew": 1837,
      "mal": 1838,
      "▁gegen": 1839,
      "leich": 1840,
      "▁;": 1841,
      "7\n": 1842,
      "▁nur": 1843,
      "rich": 1844,
      "----------------": 1845,
      "stand": 1846,
      "ple": 1847,
      "ten,": 1848,
      "dern": 1849,
      "ile": 1850,
      "du": 1851,
      "▁Kon": 1852,
      "▁eines": 1853,
      "ire": 1854,
      "▁gen": 1855,
      "▁vom": 1856,
      "ment": 1857,
      "▁hab": 1858,
      "8\n": 1859,
      "▁Es": 1860,
      "te.": 1861,
      "ath": 1862,
      "▁seine": 1863,
      "▁seiner": 1864,
      "elle": 1865,
      "▁197": 1866,
      "▁1.": 1867,
      "▁\t": 1868,
      "ument": 1869,
      "▁Y": 1870,
      "▁fol": 1871,
      "rom": 1872,
      "keit": 1873,
      "▁aber": 1874,
      "▁noch": 1875,
      "▁man": 1876,
      "▁deutsch": 1877,
      "ain": 1878,
      "schie": 1879,
      "▁ber": 1880,
      "üd": 1881,
      "me": 1882,
      "▁as": 1883,
      "aten": 1884,
      "▁dies": 1885,
      "äch": 1886,
      "▁if": 1887,
      "▁202": 1888,
      "ember": 1889,
      "**": 1890,
      "las": 1891,
      "tp": 1892,
      "eb": 1893,
      "]\n": 1894,
      "ly": 1895,
      "▁et": 1896,
      "ec": 1897,
      "▁Gem": 1898,
      "ator": 1899,
      "les": 1900,
      "eter": 1901,
      "att": 1902,
      "0?\n": 1903,
      "eister": 1904,
      "▁typ": 1905,
      "ater": 1906,
      "fen": 1907,
      "e\n": 1908,
      "burg": 1909,
      ",\n": 1910,
      "▁Fl": 1911,
      "▁bes": 1912,
      "▁196": 1913,
      "berg": 1914,
      "ammen": 1915,
      "ph": 1916,
      "sk": 1917,
      "▁hin": 1918,
      "lung": 1919,
      "glich": 1920,
      "▁25": 1921,
      "▁Stadt": 1922,
      "▁Spiel": 1923,
      "teil": 1924,
      "ey": 1925,
      "eld": 1926,
      "bje": 1927,
      "▁kon": 1928,
      "▁Reg": 1929,
      "ip": 1930,
      "atur": 1931,
      "turn": 1932,
      "ult": 1933,
      "▁Unter": 1934,
      "ten.": 1935,
      "18": 1936,
      ").\n": 1937,
      "▁sel": 1938,
      "a,": 1939,
      "▁int": 1940,
      "▁zwischen": 1941,
      "gesch": 1942,
      "▁194": 1943,
      "dig": 1944,
      "▁Um": 1945,
      "▁195": 1946,
      "up": 1947,
      "yn": 1948,
      "det": 1949,
      "e.": 1950,
      "fl": 1951,
      "ieren": 1952,
      "net": 1953,
      "fahr": 1954,
      "ieder": 1955,
      "ität": 1956,
      "-B": 1957,
      "-A": 1958,
      "▁Fran": 1959,
      "eigen": 1960,
      "zeit": 1961,
      "ilm": 1962,
      "ule": 1963,
      "▁Funktion": 1964,
      "heit": 1965,
      "öff": 1966,
      "▁Deutsch": 1967,
      "ational": 1968,
      "▁bet": 1969,
      "3\n": 1970,
      "iss": 1971,
      "ian": 1972,
      "wa": 1973,
      "nah": 1974,
      "er,": 1975,
      "▁beg": 1976,
      "ommen": 1977,
      "for": 1978,
      "ium": 1979,
      "▁Ad": 1980,
      "▁her": 1981,
      "▁Ent": 1982,
      "▁Pl": 1983,
      "1\n": 1984,
      "tete": 1985,
      "oh": 1986,
      "inn": 1987,
      "▁jed": 1988,
      "▁that": 1989,
      "usammen": 1990,
      "▁zurück": 1991,
      "▁Mar": 1992,
      "▁geh": 1993,
      "▁Ges": 1994,
      "▁alle": 1995,
      "▁el": 1996,
      "org": 1997,
      "-M": 1998,
      "ken": 1999,
      "▁`": 2000,
      "ährend": 2001,
      "rü": 2002,
      "://": 2003,
      "olog": 2004,
      "olle": 2005,
      "-P": 2006,
      "▁Fra": 2007,
      "▁Gemein": 2008,
      "ahn": 2009,
      "▁wieder": 2010,
      "▁Ü": 2011,
      "15": 2012,
      "rupp": 2013,
      "▁print": 2014,
      "▁ch": 2015,
      "▁return": 2016,
      "▁you": 2017,
      "▁dieser": 2018,
      "umber": 2019,
      "ivers": 2020,
      "bau": 2021,
      "äter": 2022,
      "imm": 2023,
      "wick": 2024,
      "ity": 2025,
      "pro": 2026,
      "▁können": 2027,
      ".c": 2028,
      "▁193": 2029,
      "glie": 2030,
      "ks": 2031,
      "▁diese": 2032,
      "mann": 2033,
      "bst": 2034,
      "▁je": 2035,
      "▁da": 2036,
      "ost": 2037,
      "▁Teil": 2038,
      "aut": 2039,
      "1,": 2040,
      "()": 2041,
      "▁;;": 2042,
      "haus": 2043,
      "▁2.": 2044,
      "iger": 2045,
      "▁Jahre": 2046,
      "hm": 2047,
      "▁wo": 2048,
      "ted": 2049,
      "▁ihre": 2050,
      "──": 2051,
      "(\"": 2052,
      "ze": 2053,
      "▁ausge": 2054,
      "ubl": 2055,
      "oo": 2056,
      "▁end": 2057,
      "'s": 2058,
      "out": 2059,
      "▁Ihr": 2060,
      "we": 2061,
      "cl": 2062,
      "▁soll": 2063,
      "▁Gesch": 2064,
      "▁not": 2065,
      "▁gr": 2066,
      "weise": 2067,
      "arl": 2068,
      "aupt": 2069,
      "of": 2070,
      "ua": 2071,
      "yst": 2072,
      "are": 2073,
      "folg": 2074,
      "oun": 2075,
      "vor": 2076,
      "eth": 2077,
      "fall": 2078,
      "ata": 2079,
      "amen": 2080,
      "olit": 2081,
      "si": 2082,
      "tt": 2083,
      "▁Zu": 2084,
      "ais": 2085,
      "ond": 2086,
      "▁Welt": 2087,
      "▁Wer": 2088,
      "St": 2089,
      "▁do": 2090,
      "▁ges": 2091,
      "mein": 2092,
      "ore": 2093,
      "========": 2094,
      "http": 2095,
      "▁jedoch": 2096,
      "ütz": 2097,
      "eng": 2098,
      "▁drei": 2099,
      "▁ersten": 2100,
      "rieb": 2101,
      "▁Ex": 2102,
      "▁Pr": 2103,
      "öl": 2104,
      "0.": 2105,
      "fe": 2106,
      "▁by": 2107,
      "iff": 2108,
      "kte": 2109,
      "eist": 2110,
      "▁US": 2111,
      "eim": 2112,
      "ähl": 2113,
      "▁bek": 2114,
      "orf": 2115,
      "▁Über": 2116,
      "▁we": 2117,
      "ober": 2118,
      "ehmen": 2119,
      "▁value": 2120,
      "iele": 2121,
      "ase": 2122,
      "▁Jahren": 2123,
      "ingen": 2124,
      "rieg": 2125,
      "issen": 2126,
      "-F": 2127,
      "ax": 2128,
      "geben": 2129,
      "▁Qu": 2130,
      "-K": 2131,
      "enk": 2132,
      "▁Kir": 2133,
      "In": 2134,
      "urop": 2135,
      "iet": 2136,
      "▁gehör": 2137,
      "port": 2138,
      "▁this": 2139,
      ">\n": 2140,
      "ald": 2141,
      "ystem": 2142,
      "▁For": 2143,
      "▁Arb": 2144,
      "gab": 2145,
      "lt": 2146,
      "/\n": 2147,
      "▁Geb": 2148,
      "ank": 2149,
      "ign": 2150,
      "▁ihn": 2151,
      "▁geb": 2152,
      "ail": 2153,
      "ctor": 2154,
      "s.\n": 2155,
      "ssen": 2156,
      "▁seit": 2157,
      "▁Als": 2158,
      "▁Ste": 2159,
      "▁hatte": 2160,
      "▁erh": 2161,
      "aat": 2162,
      "▁später": 2163,
      "▁best": 2164,
      "entr": 2165,
      "ere": 2166,
      "mit": 2167,
      "val": 2168,
      "ello": 2169,
      "▁führ": 2170,
      "▁Univers": 2171,
      "lock": 2172,
      "lein": 2173,
      "▁Bau": 2174,
      "old": 2175,
      "################": 2176,
      "▁wor": 2177,
      "▁Part": 2178,
      "▁Jan": 2179,
      "ellen": 2180,
      "setz": 2181,
      "ange": 2182,
      "ome": 2183,
      "▁erst": 2184,
      "acht": 2185,
      "ung,": 2186,
      "raß": 2187,
      "rach": 2188,
      "dent": 2189,
      "ies": 2190,
      "trag": 2191,
      "off": 2192,
      "ice": 2193,
      "▁use": 2194,
      "man": 2195,
      "▁Mus": 2196,
      "ichte": 2197,
      "app": 2198,
      "öglich": 2199,
      "▁>": 2200,
      "▁gesch": 2201,
      "9\n": 2202,
      "▁verb": 2203,
      "fü": 2204,
      "alen": 2205,
      "▁waren": 2206,
      "es\n": 2207,
      "▁ins": 2208,
      "hund": 2209,
      "ymb": 2210,
      "▁wh": 2211,
      "000": 2212,
      "amil": 2213,
      "▁vari": 2214,
      "ement": 2215,
      "ierten": 2216,
      "öß": 2217,
      "▁ne": 2218,
      "▁dam": 2219,
      "tex": 2220,
      "ibt": 2221,
      "4.": 2222,
      "bject": 2223,
      "name": 2224,
      "stän": 2225,
      "▁Gen": 2226,
      "ielt": 2227,
      "es,": 2228,
      "arr": 2229,
      "25": 2230,
      "▁:=": 2231,
      "schaften": 2232,
      "lag": 2233,
      "dex": 2234,
      "li": 2235,
      "put": 2236,
      "ied": 2237,
      "cri": 2238,
      "eig": 2239,
      "▁was": 2240,
      "ikan": 2241,
      "ationen": 2242,
      "▁Schw": 2243,
      "▁Jahrhund": 2244,
      "▁Ne": 2245,
      "min": 2246,
      "▁groß": 2247,
      "lau": 2248,
      "ron": 2249,
      "ude": 2250,
      "ption": 2251,
      "gan": 2252,
      "▁&": 2253,
      "els": 2254,
      "oren": 2255,
      "▁list": 2256,
      "orn": 2257,
      "als": 2258,
      "halten": 2259,
      "ix": 2260,
      "wo": 2261,
      "▁eigen": 2262,
      "▁string": 2263,
      "lang": 2264,
      "ool": 2265,
      "▁Ph": 2266,
      "▁So": 2267,
      "▁wel": 2268,
      "▁konn": 2269,
      "▁wenn": 2270,
      "igkeit": 2271,
      "ett": 2272,
      "▁Ende": 2273,
      "ensch": 2274,
      "az": 2275,
      "zeu": 2276,
      "▁ihm": 2277,
      "▁Film": 2278,
      "▁3.": 2279,
      "halb": 2280,
      "▁let": 2281,
      "son": 2282,
      "eln": 2283,
      "res": 2284,
      "▁Aug": 2285,
      "▁name": 2286,
      "rad": 2287,
      "gend": 2288,
      "such": 2289,
      "onder": 2290,
      "-R": 2291,
      ";;;;;;;;": 2292,
      "▁.": 2293,
      "assen": 2294,
      "mus": 2295,
      "▁Bund": 2296,
      "▁from": 2297,
      "▁Haupt": 2298,
      "entlich": 2299,
      "a.": 2300,
      "▁beim": 2301,
      "▁ange": 2302,
      "werk": 2303,
      "▁ad": 2304,
      "...": 2305,
      "hand": 2306,
      "amt": 2307,
      "▁fin": 2308,
      "uar": 2309,
      "schieden": 2310,
      "-W": 2311,
      "▁def": 2312,
      "spr": 2313,
      "low": 2314,
      "▁Chr": 2315,
      "▁r=1": 2316,
      "50": 2317,
      "ans": 2318,
      "▁lang": 2319,
      "red": 2320,
      "▁Jun": 2321,
      "ußer": 2322,
      "▁erste": 2323,
      "ott": 2324,
      "▁Gemeinde": 2325,
      "alse": 2326,
      "nung": 2327,
      "-D": 2328,
      "▁!": 2329,
      "1.": 2330,
      "irt": 2331,
      "▁verwende": 2332,
      "ll": 2333,
      "stru": 2334,
      "▁seinem": 2335,
      "sh": 2336,
      "▁seinen": 2337,
      "s://": 2338,
      "itel": 2339,
      "▁var": 2340,
      "iker": 2341,
      "erson": 2342,
      "ös": 2343,
      "unden": 2344,
      "eute": 2345,
      "▁Ro": 2346,
      "ession": 2347,
      "ount": 2348,
      "▁Mitglie": 2349,
      "ätz": 2350,
      "▁dann": 2351,
      "▁will": 2352,
      "rech": 2353,
      "▁28": 2354,
      "▁Diese": 2355,
      "▁Kön": 2356,
      "▁50": 2357,
      "▁se": 2358,
      "▁@": 2359,
      "▁Par": 2360,
      "▁während": 2361,
      "-T": 2362,
      "▁Ort": 2363,
      "tre": 2364,
      "lage": 2365,
      "▁Frau": 2366,
      "zen": 2367,
      "▁23": 2368,
      "-G": 2369,
      "12": 2370,
      "ide": 2371,
      "▁gibt": 2372,
      "sion": 2373,
      "cho": 2374,
      "14": 2375,
      "▁my": 2376,
      "▁anderen": 2377,
      "gument": 2378,
      "▁par": 2379,
      "▁Januar": 2380,
      "ite": 2381,
      "ons": 2382,
      "▁August": 2383,
      "▁etwa": 2384,
      "▁type": 2385,
      "br": 2386,
      "▁Jul": 2387,
      "▁Verein": 2388,
      "bt": 2389,
      "other": 2390,
      "▁192": 2391,
      "ute": 2392,
      "ez": 2393,
      "ried": 2394,
      "ong": 2395,
      "ings": 2396,
      "zw": 2397,
      "ary": 2398,
      "▁res": 2399,
      "osition": 2400,
      "gramm": 2401,
      "riff": 2402,
      "▁22": 2403,
      "ister": 2404,
      "▁Mann": 2405,
      "▁get": 2406,
      "▁all": 2407,
      "▁Juni": 2408,
      "zahl": 2409,
      "▁El": 2410,
      "▁also": 2411,
      "wend": 2412,
      "raf": 2413,
      "▁set": 2414,
      "ele": 2415,
      "](": 2416,
      "irk": 2417,
      "aff": 2418,
      "-E": 2419,
      "▁West": 2420,
      "))": 2421,
      "isten": 2422,
      "itt": 2423,
      "ünde": 2424,
      "▁einz": 2425,
      "▁letz": 2426,
      "▁/*": 2427,
      "bes": 2428,
      "eite": 2429,
      "17": 2430,
      "ry": 2431,
      "▁Für": 2432,
      "▁ihrer": 2433,
      "▁Von": 2434,
      "▁comm": 2435,
      "▁Man": 2436,
      "inder": 2437,
      "schließ": 2438,
      "▁Symb": 2439,
      "▁Bo": 2440,
      "hof": 2441,
      "ärz": 2442,
      "▁tru": 2443,
      "▁ich": 2444,
      "▁keine": 2445,
      "äng": 2446,
      "aum": 2447,
      "atch": 2448,
      "ktiv": 2449,
      "▁zusammen": 2450,
      "▁Dies": 2451,
      "▁Bes": 2452,
      "▁kam": 2453,
      "par": 2454,
      "unde": 2455,
      "licher": 2456,
      "auer": 2457,
      "▁(19": 2458,
      "▁Bet": 2459,
      "meister": 2460,
      "here": 2461,
      "get": 2462,
      "2,": 2463,
      "zer": 2464,
      "▁Aut": 2465,
      "▁class": 2466,
      "https://": 2467,
      "amer": 2468,
      "gew": 2469,
      "▁Hand": 2470,
      "ations": 2471,
      "prä": 2472,
      "▁*/\n": 2473,
      "▁Mai": 2474,
      "cc": 2475,
      "▁teil": 2476,
      "UT": 2477,
      "▁selbst": 2478,
      "satz": 2479,
      "ktor": 2480,
      "tember": 2481,
      "▁Groß": 2482,
      "▁erfolg": 2483,
      "▁Sep": 2484,
      "ka": 2485,
      "▁Leben": 2486,
      "▁König": 2487,
      "▁gleich": 2488,
      "ike": 2489,
      "inter": 2490,
      "▁27": 2491,
      "▁26": 2492,
      "ld": 2493,
      "▁eben": 2494,
      "▁dort": 2495,
      "▁September": 2496,
      "▁Ger": 2497,
      "▁Nord": 2498,
      "stellung": 2499,
      "gen,": 2500,
      "▁comp": 2501,
      "▁Ober": 2502,
      "pril": 2503,
      "▁Bundes": 2504,
      "\")": 2505,
      "ample": 2506,
      "-V": 2507,
      "äh": 2508,
      "▁April": 2509,
      "ha": 2510,
      "▁Dez": 2511,
      "▁Berlin": 2512,
      "ball": 2513,
      "▁besch": 2514,
      "ave": 2515,
      "fach": 2516,
      "ker": 2517,
      "yth": 2518,
      "ally": 2519,
      "13": 2520,
      "kehr": 2521,
      "▁->": 2522,
      "en\n": 2523,
      "▁ben": 2524,
      "▁==": 2525,
      "▁Okt": 2526,
      "▁diesem": 2527,
      "▁Ser": 2528,
      "-L": 2529,
      "reck": 2530,
      "▁echo": 2531,
      "ritt": 2532,
      "▁bekann": 2533,
      "▁Min": 2534,
      "hne": 2535,
      "ace": 2536,
      "stein": 2537,
      "////////////////": 2538,
      "::": 2539,
      "ke": 2540,
      "▁Famil": 2541,
      "▁Eine": 2542,
      "▁Grund": 2543,
      "▁Ö": 2544,
      "unkt": 2545,
      "0,": 2546,
      "▁Bl": 2547,
      "hin": 2548,
      "arn": 2549,
      "ock": 2550,
      "▁März": 2551,
      "▁cont": 2552,
      "ON": 2553,
      "▁Met": 2554,
      "▁erw": 2555,
      "▁Art": 2556,
      "▁_": 2557,
      "▁Nov": 2558,
      "asch": 2559,
      "▁ist,": 2560,
      "▁at": 2561,
      "▁Pf": 2562,
      "▁Typ": 2563,
      "abei": 2564,
      "▁könn": 2565,
      "▁liegt": 2566,
      "▁Oktober": 2567,
      "leg": 2568,
      "unst": 2569,
      "▁number": 2570,
      "▁array": 2571,
      "eid": 2572,
      "län": 2573,
      "}\n": 2574,
      "ächst": 2575,
      "▁Dezember": 2576,
      "ror": 2577,
      "▁ger": 2578,
      "▁haben": 2579,
      "öffentlich": 2580,
      "16": 2581,
      "hem": 2582,
      "ose": 2583,
      "pen": 2584,
      "set": 2585,
      "weg": 2586,
      "äd": 2587,
      "▁vier": 2588,
      "ime": 2589,
      "▁User": 2590,
      "▁spiel": 2591,
      "etzt": 2592,
      "bei": 2593,
      "lex": 2594,
      "ält": 2595,
      "▁Rück": 2596,
      "ehen": 2597,
      "▁Rei": 2598,
      "ake": 2599,
      "gestell": 2600,
      "genden": 2601,
      "▁verschieden": 2602,
      "▁object": 2603,
      "▁Schl": 2604,
      "wohn": 2605,
      "richt": 2606,
      "ton": 2607,
      "▁hier": 2608,
      "loss": 2609,
      "▁gab": 2610,
      "sterreich": 2611,
      "grund": 2612,
      "▁Mensch": 2613,
      "halt": 2614,
      "▁Durch": 2615,
      "▁mach": 2616,
      "▁bereits": 2617,
      "falls": 2618,
      "–19": 2619,
      "▁Süd": 2620,
      "zeichnet": 2621,
      "▁Platz": 2622,
      "▁100": 2623,
      "ure": 2624,
      "alis": 2625,
      "istor": 2626,
      "▁Mon": 2627,
      "▁Komm": 2628,
      "ander": 2629,
      "gen.": 2630,
      "änder": 2631,
      "inz": 2632,
      "▁2,": 2633,
      "▁Staat": 2634,
      "ull": 2635,
      "zie": 2636,
      "▁stat": 2637,
      "öst": 2638,
      "▁X": 2639,
      "▁Joh": 2640,
      "echsel": 2641,
      "▁Juli": 2642,
      "bo": 2643,
      "haf": 2644,
      "▁Kl": 2645,
      "ize": 2646,
      "io:": 2647,
      "-C": 2648,
      "eile": 2649,
      "▁deutscher": 2650,
      "▁24": 2651,
      "▁Neu": 2652,
      ");": 2653,
      "▁(S": 2654,
      "alien": 2655,
      "▁viel": 2656,
      "▁29": 2657,
      "▁zun": 2658,
      "▁Europ": 2659,
      "▁wurde.": 2660,
      "▁User:": 2661,
      "iter": 2662,
      "▁Symbio:": 2663,
      "▁Stud": 2664,
      "reate": 2665,
      "ienst": 2666,
      "ER": 2667,
      "ade": 2668,
      "dr": 2669,
      "ole": 2670,
      "es.": 2671,
      "▁befin": 2672,
      "▁Frank": 2673,
      "gang": 2674,
      "lig": 2675,
      "ativ": 2676,
      "▁stell": 2677,
      "schafts": 2678,
      "▁qu": 2679,
      "ung.": 2680,
      "▁Mal": 2681,
      "rag": 2682,
      "▁beiden": 2683,
      "irst": 2684,
      "▁werden.": 2685,
      "ruppe": 2686,
      "one": 2687,
      "▁new": 2688,
      "ve": 2689,
      "▁Vari": 2690,
      "▁dessen": 2691,
      "ruck": 2692,
      "▁Mitglied": 2693,
      "▁Wil": 2694,
      "▁30": 2695,
      "▁ihren": 2696,
      "raße": 2697,
      "▁Med": 2698,
      "▁Mün": 2699,
      "uft": 2700,
      "ys": 2701,
      "▁„": 2702,
      "ink": 2703,
      "gemein": 2704,
      "▁November": 2705,
      "32": 2706,
      "rieben": 2707,
      "▁Fol": 2708,
      "olor": 2709,
      "▁Inst": 2710,
      "▁Dat": 2711,
      ".com": 2712,
      "▁†": 2713,
      "itä": 2714,
      "▁Wert": 2715,
      "▁38": 2716,
      "▁Deutschland": 2717,
      "▁du": 2718,
      "▁defin": 2719,
      "%%": 2720,
      "▁heute": 2721,
      "keiten": 2722,
      "ma": 2723,
      "zug": 2724,
      "▁Inter": 2725,
      "▁Vol": 2726,
      "▁Ind": 2727,
      "alle": 2728,
      "urz": 2729,
      "lasse": 2730,
      "aison": 2731,
      "▁en": 2732,
      "rik": 2733,
      "▁(18": 2734,
      "umen": 2735,
      "iere": 2736,
      "▁bef": 2737,
      "▁45": 2738,
      "▁Verb": 2739,
      "▁damit": 2740,
      "▁Johann": 2741,
      "test": 2742,
      "▁String": 2743,
      "▁35": 2744,
      "rift": 2745,
      "mals": 2746,
      "ethod": 2747,
      "olf": 2748,
      "▁Haus": 2749,
      "iert.": 2750,
      "11": 2751,
      "piel": 2752,
      "erin": 2753,
      "den,": 2754,
      "ext": 2755,
      "stütz": 2756,
      "▁190": 2757,
      "ologie": 2758,
      "cript": 2759,
      "▁List": 2760,
      "▁Kirche": 2761,
      "bach": 2762,
      "▁lo": 2763,
      "fang": 2764,
      "ork": 2765,
      "▁National": 2766,
      "eitung": 2767,
      "ance": 2768,
      "▁inter": 2769,
      "ähn": 2770,
      "▁em": 2771,
      "geh": 2772,
      "arg": 2773,
      "▁Dar": 2774,
      "▁Bas": 2775,
      "▁oper": 2776,
      "▁Beg": 2777,
      "oten": 2778,
      "▁Em": 2779,
      "▁gef": 2780,
      "▁32": 2781,
      "rol": 2782,
      "▁ob": 2783,
      "▁out": 2784,
      "uer": 2785,
      "▁bel": 2786,
      "▁Pol": 2787,
      "0er": 2788,
      "mä": 2789,
      "urr": 2790,
      "▁Fried": 2791,
      "-H": 2792,
      "erst": 2793,
      "▁ersch": 2794,
      "▁weitere": 2795,
      "▁größ": 2796,
      "aw": 2797,
      "▁New": 2798,
      "▁erhielt": 2799,
      "▁Tra": 2800,
      "▁Ho": 2801,
      "▁Ju": 2802,
      "▁using": 2803,
      "vent": 2804,
      "ünf": 2805,
      "▁Arch": 2806,
      "▁This": 2807,
      "▁Sh": 2808,
      "▁It": 2809,
      "▁werden,": 2810,
      "ebru": 2811,
      "▁Titel": 2812,
      "ktur": 2813,
      "ternehmen": 2814,
      "ebruar": 2815,
      "bild": 2816,
      "oz": 2817,
      "schl": 2818,
      "▁Eng": 2819,
      "--------------------------------": 2820,
      "▁konnte": 2821,
      "IN": 2822,
      "▁Krieg": 2823,
      "amp": 2824,
      "rib": 2825,
      "****": 2826,
      "ublic": 2827,
      "3.": 2828,
      "ames": 2829,
      "ables": 2830,
      "▁Hoch": 2831,
      "▁\"H": 2832,
      "wicklung": 2833,
      "75": 2834,
      "üss": 2835,
      "▁Februar": 2836,
      "▁off": 2837,
      "▁pre": 2838,
      "▁have": 2839,
      "▁Beispiel": 2840,
      "reu": 2841,
      "▁gewann": 2842,
      "▁Christ": 2843,
      "ble": 2844,
      "▁Hier": 2845,
      "äm": 2846,
      "schn": 2847,
      "feld": 2848,
      "▁sehr": 2849,
      "▁mus": 2850,
      "▁Zw": 2851,
      "▁begann": 2852,
      "walt": 2853,
      "ative": 2854,
      "▁Zeich": 2855,
      "▁Produ": 2856,
      "sst": 2857,
      "▁süd": 2858,
      "▁Zwei": 2859,
      "gleich": 2860,
      "▁Ä": 2861,
      "▁kein": 2862,
      "▁Seit": 2863,
      "aul": 2864,
      "2.": 2865,
      "▁son": 2866,
      "▁Wei": 2867,
      "uld": 2868,
      "────": 2869,
      "y,": 2870,
      "ünst": 2871,
      "text": 2872,
      "bahn": 2873,
      "▁1,": 2874,
      "▁36": 2875,
      "unter": 2876,
      "sy": 2877,
      "▁wen": 2878,
      "▁Prä": 2879,
      "lan": 2880,
      "▁dire": 2881,
      "unk": 2882,
      "▁Reich": 2883,
      "▁mod": 2884,
      "▁Gener": 2885,
      "ues": 2886,
      "öch": 2887,
      "ieg": 2888,
      "▁II": 2889,
      "▁Nieder": 2890,
      "▁immer": 2891,
      "▁189": 2892,
      "▁Sohn": 2893,
      "▁sh": 2894,
      "▁You": 2895,
      "▁Kunst": 2896,
      "agen": 2897,
      "arten": 2898,
      "▁Form": 2899,
      "▁Wenn": 2900,
      "▁Tur": 2901,
      "▁40": 2902,
      "ultur": 2903,
      "▁Flug": 2904,
      "▁char": 2905,
      "▁4.": 2906,
      "▁ehem": 2907,
      "lauf": 2908,
      "was": 2909,
      "▁u": 2910,
      "▁Saison": 2911,
      "▁Ur": 2912,
      "▁frü": 2913,
      "▁Schwei": 2914,
      "▁Mod": 2915,
      "igung": 2916,
      "▁nah": 2917,
      "▁Zusammen": 2918,
      "ucht": 2919,
      "mut": 2920,
      "erk": 2921,
      "▁Con": 2922,
      "ziel": 2923,
      "▁argument": 2924,
      "issenschaft": 2925,
      "eren": 2926,
      "reg": 2927,
      "▁add": 2928,
      "\")\n": 2929,
      "▁33": 2930,
      "▁stand": 2931,
      "▁darauf": 2932,
      "sicht": 2933,
      "ash": 2934,
      "zös": 2935,
      "▁Gra": 2936,
      "den.": 2937,
      "▁he": 2938,
      "▁Is": 2939,
      "ution": 2940,
      "▁used": 2941,
      "-\n": 2942,
      "▁Mark": 2943,
      "fern": 2944,
      "▁Person": 2945,
      "▁klein": 2946,
      "ünd": 2947,
      "▁neue": 2948,
      ".com/": 2949,
      "o,": 2950,
      "äuf": 2951,
      "ina": 2952,
      "▁Frei": 2953,
      "▁deren": 2954,
      "▁34": 2955,
      "ven": 2956,
      "ww": 2957,
      "achsen": 2958,
      "▁neuen": 2959,
      "schied": 2960,
      "](https://": 2961,
      "ender": 2962,
      "▁fil": 2963,
      "▁zunächst": 2964,
      "▁Ele": 2965,
      "▁Proz": 2966,
      "west": 2967,
      "▁komm": 2968,
      "▁*)\n": 2969,
      "▁sub": 2970,
      "▁Fre": 2971,
      "▁31": 2972,
      "▁werden.\n": 2973,
      "▁aller": 2974,
      "lossen": 2975,
      "uten": 2976,
      "ise": 2977,
      "▁file": 2978,
      "▁Stand": 2979,
      "forder": 2980,
      "▁He": 2981,
      "▁Komp": 2982,
      "▁lua": 2983,
      "▁andere": 2984,
      "list": 2985,
      "▁aut": 2986,
      "loat": 2987,
      "-St": 2988,
      "nahme": 2989,
      "3,": 2990,
      "akt": 2991,
      "äude": 2992,
      "▁ro": 2993,
      "essen": 2994,
      "ates": 2995,
      "reib": 2996,
      "=>": 2997,
      "▁hand": 2998,
      "▁0.0": 2999,
      "nisse": 3000,
      "▁Ihre": 3001,
      "ote": 3002,
      "▁data": 3003,
      "unction": 3004,
      "▁Fin": 3005,
      "▁fest": 3006,
      "ilit": 3007,
      "▁sei": 3008,
      "isches": 3009,
      "▁ohne": 3010,
      "ated": 3011,
      "icher": 3012,
      "▁Namen": 3013,
      "AR": 3014,
      "▁ehemal": 3015,
      "wort": 3016,
      "stoff": 3017,
      "▁wicht": 3018,
      "▁Fuß": 3019,
      "▁const": 3020,
      "▁genann": 3021,
      "6.": 3022,
      "▁ur": 3023,
      "▁einge": 3024,
      "ten.\n": 3025,
      "▁Universität": 3026,
      "hel": 3027,
      "oid": 3028,
      "chn": 3029,
      "cher": 3030,
      "▁Auch": 3031,
      "ory": 3032,
      "gende": 3033,
      "string": 3034,
      "▁Daten": 3035,
      "ürger": 3036,
      "lassen": 3037,
      "▁welche": 3038,
      "▁Ich": 3039,
      "▁end\n": 3040,
      "▁Bild": 3041,
      "▁key": 3042,
      "▁37": 3043,
      "▁Arbeit": 3044,
      "zeug": 3045,
      "▁but": 3046,
      "▁###": 3047,
      "▁Jahrhundert": 3048,
      "orld": 3049,
      "▁Dan": 3050,
      "▁erk": 3051,
      "``": 3052,
      "▁Te": 3053,
      "reiben": 3054,
      "ktu": 3055,
      "▁inner": 3056,
      "schule": 3057,
      "ynt": 3058,
      "▁variable": 3059,
      "def": 3060,
      "▁Rom": 3061,
      "▁entstand": 3062,
      "ätig": 3063,
      "▁element": 3064,
      "',": 3065,
      "30": 3066,
      "▁Sk": 3067,
      "▁Me": 3068,
      "pel": 3069,
      "▁Best": 3070,
      "▁denen": 3071,
      "▁Stel": 3072,
      "▁Mill": 3073,
      "▁```": 3074,
      "ogen": 3075,
      "änger": 3076,
      "gabe": 3077,
      "▁Car": 3078,
      "pression": 3079,
      "nahm": 3080,
      "dorf": 3081,
      "r.": 3082,
      "▁other": 3083,
      "▁sol": 3084,
      "▁false": 3085,
      "ums": 3086,
      "▁188": 3087,
      "▁Landes": 3088,
      "bin": 3089,
      "na": 3090,
      "▁Bra": 3091,
      "▁muss": 3092,
      "use": 3093,
      "▁42": 3094,
      "▁5.": 3095,
      "▁Mittel": 3096,
      "\":": 3097,
      "oss": 3098,
      "örder": 3099,
      "▁Tr": 3100,
      "▁75": 3101,
      "▁Partei": 3102,
      "er.": 3103,
      "chts": 3104,
      "▁Comp": 3105,
      "oph": 3106,
      "lagen": 3107,
      "line": 3108,
      "▁Während": 3109,
      "rache": 3110,
      "gte": 3111,
      "van": 3112,
      "x3": 3113,
      "str": 3114,
      "▁Fern": 3115,
      "ulti": 3116,
      "kl": 3117,
      "ats": 3118,
      "▁Hö": 3119,
      "i,": 3120,
      "krieg": 3121,
      "▁Da": 3122,
      "================": 3123,
      "wert": 3124,
      "▁Bur": 3125,
      "▁Polit": 3126,
      "▁We": 3127,
      "fert": 3128,
      "▁fünf": 3129,
      "ellschaft": 3130,
      "ls": 3131,
      "▁Ben": 3132,
      "immer": 3133,
      "▁Ant": 3134,
      "own": 3135,
      "▁Wasser": 3136,
      "▁...": 3137,
      "ament": 3138,
      "▁Lehr": 3139,
      "▁import": 3140,
      "▁39": 3141,
      "lär": 3142,
      "▁Herr": 3143,
      "con": 3144,
      "▁wei": 3145,
      "rate": 3146,
      "mäß": 3147,
      "▁(A": 3148,
      "los": 3149,
      "▁186": 3150,
      "met": 3151,
      "alter": 3152,
      "▁per": 3153,
      "steht": 3154,
      "ranzös": 3155,
      "▁Phil": 3156,
      "▁ist.": 3157,
      "▁ste": 3158,
      "ameter": 3159,
      "gesetz": 3160,
      "▁verwenden": 3161,
      "ES": 3162,
      "ius": 3163,
      "urt": 3164,
      "▁block": 3165,
      "'t": 3166,
      "▁(D": 3167,
      "▁veröffentlich": 3168,
      "▁schw": 3169,
      "üt": 3170,
      "angen": 3171,
      "deck": 3172,
      "▁Hol": 3173,
      "▁44": 3174,
      "\".": 3175,
      "ismus": 3176,
      "▁einige": 3177,
      "ission": 3178,
      "▁ebenfalls": 3179,
      "ython": 3180,
      "'\n": 3181,
      "rans": 3182,
      "▁Gegen": 3183,
      "▁else": 3184,
      "sitz": 3185,
      "▁Sein": 3186,
      "▁möglich": 3187,
      "▁Ed": 3188,
      "▁##": 3189,
      "▁43": 3190,
      "▁ihrem": 3191,
      "▁allem": 3192,
      "EN": 3193,
      "▁verwendet": 3194,
      "sol": 3195,
      "▁Bahn": 3196,
      "▁Einwohn": 3197,
      "▁Char": 3198,
      "▁Musik": 3199,
      "▁Familie": 3200,
      "uk": 3201,
      "▁Per": 3202,
      "▁Nor": 3203,
      "▁Oper": 3204,
      "zieh": 3205,
      "▁Kinder": 3206,
      "▁sondern": 3207,
      "urs": 3208,
      "▁gest": 3209,
      "▁49": 3210,
      "mittel": 3211,
      "▁Jahrhunder": 3212,
      "▁Di": 3213,
      "▁Fahr": 3214,
      "▁trat": 3215,
      "hre": 3216,
      "▁Tod": 3217,
      "▁2009": 3218,
      "Un": 3219,
      "legen": 3220,
      "▁tra": 3221,
      "weis": 3222,
      "AT": 3223,
      "neh": 3224,
      "iert,": 3225,
      "fte": 3226,
      "x4": 3227,
      "▁Fr": 3228,
      "oth": 3229,
      "String": 3230,
      "▁Unternehmen": 3231,
      "ternational": 3232,
      "ustr": 3233,
      "ohl": 3234,
      "▁eng": 3235,
      "tent": 3236,
      "▁Band": 3237,
      "▁Buch": 3238,
      "▁verk": 3239,
      "▁Kont": 3240,
      "bert": 3241,
      "▁km": 3242,
      "▁gemein": 3243,
      "verb": 3244,
      "heim": 3245,
      "▁public": 3246,
      "▁war,": 3247,
      "bet": 3248,
      "ekt": 3249,
      "▁Bar": 3250,
      "▁Hal": 3251,
      "▁Schul": 3252,
      "ruppen": 3253,
      "stadt": 3254,
      "▁fand": 3255,
      "▁which": 3256,
      "fas": 3257,
      "ault": 3258,
      "-O": 3259,
      "in,": 3260,
      "-N": 3261,
      "x2": 3262,
      "▁Ol": 3263,
      "zw.": 3264,
      "ien,": 3265,
      "punkt": 3266,
      "let": 3267,
      "▁#=>": 3268,
      "oder": 3269,
      "ret": 3270,
      "▁Natur": 3271,
      "yntax": 3272,
      "öm": 3273,
      "innen": 3274,
      "▁any": 3275,
      "▁Sa": 3276,
      "deut": 3277,
      "ing\n": 3278,
      "aden": 3279,
      "kon": 3280,
      "es.\n": 3281,
      "▁Tab": 3282,
      "utter": 3283,
      "▁Zahl": 3284,
      "lob": 3285,
      "führung": 3286,
      "▁dieses": 3287,
      "))\n": 3288,
      "70": 3289,
      "häng": 3290,
      "igt": 3291,
      "▁48": 3292,
      "rite": 3293,
      "ganis": 3294,
      "ek": 3295,
      "▁Karl": 3296,
      "seh": 3297,
      "▁deutschen": 3298,
      "▁nahm": 3299,
      "o.": 3300,
      "osten": 3301,
      "esen": 3302,
      "ionen": 3303,
      "▁(\"": 3304,
      "▁anderem": 3305,
      "40": 3306,
      "ient": 3307,
      "zial": 3308,
      "alif": 3309,
      "▁Wahl": 3310,
      "4,": 3311,
      "▁mü": 3312,
      "▁46": 3313,
      "ln": 3314,
      "▁1\n": 3315,
      "reichen": 3316,
      "▁Inform": 3317,
      "▁entwick": 3318,
      "ype": 3319,
      "</": 3320,
      "▁dabei": 3321,
      "igur": 3322,
      "vert": 3323,
      "fahren": 3324,
      "▁2\n": 3325,
      "my": 3326,
      "▁Lie": 3327,
      "▁All": 3328,
      "('": 3329,
      "sent": 3330,
      "▁21": 3331,
      "▁gegr": 3332,
      "▁Obje": 3333,
      "▁arbei": 3334,
      "ling": 3335,
      "▁inst": 3336,
      "▁(M": 3337,
      "gebiet": 3338,
      "ish": 3339,
      "▁bzw.": 3340,
      "ieren.": 3341,
      "omat": 3342,
      "▁Prof": 3343,
      "▁Programm": 3344,
      "▁one": 3345,
      "wendung": 3346,
      "act": 3347,
      "▁befindet": 3348,
      "esse": 3349,
      "▁aktu": 3350,
      "▁say": 3351,
      "▁like": 3352,
      "jekt": 3353,
      "▁zweiten": 3354,
      "schluss": 3355,
      "ift": 3356,
      "kir": 3357,
      "sw": 3358,
      "äus": 3359,
      "▁(F": 3360,
      "▁2011": 3361,
      "lor": 3362,
      "▁index": 3363,
      "ehl": 3364,
      "ai": 3365,
      "kommen": 3366,
      "sam": 3367,
      "äre": 3368,
      "▁bil": 3369,
      "▁einfach": 3370,
      "othe": 3371,
      "▁0,": 3372,
      "▁spec": 3373,
      "▁Deutschen": 3374,
      "▁Menschen": 3375,
      "ader": 3376,
      "hol": 3377,
      "upp": 3378,
      "vel": 3379,
      "▁Sitz": 3380,
      "▁2008": 3381,
      "buch": 3382,
      "zähl": 3383,
      "recht": 3384,
      "▁\"D": 3385,
      "▁an,": 3386,
      "stellen": 3387,
      "ense": 3388,
      "te.\n": 3389,
      "echs": 3390,
      "▁Kr": 3391,
      "▁errich": 3392,
      "lay": 3393,
      "()\n": 3394,
      "ieren,": 3395,
      "▁create": 3396,
      "▁stud": 3397,
      "▁stark": 3398,
      "▁example": 3399,
      "ständ": 3400,
      "▁französ": 3401,
      "▁hei": 3402,
      ";;;;;;;;;;;;;;;;": 3403,
      "atri": 3404,
      "▁Berg": 3405,
      "ußerdem": 3406,
      "▁diesen": 3407,
      "▁3,": 3408,
      "▁war.": 3409,
      "ruct": 3410,
      "auspiel": 3411,
      "ücke": 3412,
      "sych": 3413,
      "rop": 3414,
      "▁Eis": 3415,
      "ical": 3416,
      "▁Sc": 3417,
      "amerikan": 3418,
      "isp": 3419,
      "▁Hein": 3420,
      "▁2012": 3421,
      "▁Friedrich": 3422,
      "!\n": 3423,
      "▁mehrere": 3424,
      "arch": 3425,
      "ision": 3426,
      "▁ern": 3427,
      "▁schließ": 3428,
      "ove": 3429,
      "org/": 3430,
      "▁spielte": 3431,
      "▁method": 3432,
      "▁Wie": 3433,
      "▁Lei": 3434,
      "▁47": 3435,
      "loc": 3436,
      "ande": 3437,
      "▁Fußball": 3438,
      "▁System": 3439,
      "rechen": 3440,
      "▁has": 3441,
      "▁2000": 3442,
      "AN": 3443,
      "gie": 3444,
      "▁Anfang": 3445,
      "füg": 3446,
      "▁Tor": 3447,
      "▁code": 3448,
      "ritten": 3449,
      "ublik": 3450,
      "ound": 3451,
      "uck": 3452,
      "▁app": 3453,
      "▁Mor": 3454,
      "ahlen": 3455,
      "▁2007": 3456,
      "oint": 3457,
      "▁Array": 3458,
      "co": 3459,
      "▁Peter": 3460,
      "▁\"S": 3461,
      "▁auf.": 3462,
      "▁And": 3463,
      "änge": 3464,
      "▁Neben": 3465,
      "ces": 3466,
      "tag": 3467,
      "▁when": 3468,
      "▁Dort": 3469,
      "▁12.": 3470,
      "▁dazu": 3471,
      "▁operator": 3472,
      "_t": 3473,
      "por": 3474,
      "wirt": 3475,
      "stra": 3476,
      "▁Bel": 3477,
      "▁Wir": 3478,
      "▁St.": 3479,
      "▁2010": 3480,
      "▁|\n": 3481,
      "obei": 3482,
      "Ar": 3483,
      "ence": 3484,
      "ilt": 3485,
      "ichts": 3486,
      "ül": 3487,
      "▁ind": 3488,
      "▁Tag": 3489,
      "▁Datei": 3490,
      "60": 3491,
      "ese": 3492,
      "teger": 3493,
      "▁no": 3494,
      "▁Geschichte": 3495,
      "sident": 3496,
      "\");\n": 3497,
      "isch-": 3498,
      "▁19.": 3499,
      "▁wobei": 3500,
      "▁Kil": 3501,
      "▁ho": 3502,
      "cken": 3503,
      "▁entsp": 3504,
      "▁letzten": 3505,
      "▁(P": 3506,
      "▁ganz": 3507,
      "ield": 3508,
      "▁Vertrag": 3509,
      "echn": 3510,
      "ondere": 3511,
      "zentr": 3512,
      "▁Paul": 3513,
      "ern,": 3514,
      "▁decl": 3515,
      "▁reg": 3516,
      "print": 3517,
      "▁Region": 3518,
      "▁Werk": 3519,
      "ual": 3520,
      "vol": 3521,
      "▁wechsel": 3522,
      "▁Meter": 3523,
      "▁Fall": 3524,
      "▁form": 3525,
      "▁?": 3526,
      "▁(B": 3527,
      "ehler": 3528,
      "tes": 3529,
      "▁6.": 3530,
      "▁2014": 3531,
      "▁Grenz": 3532,
      "▁gener": 3533,
      "▁bestimm": 3534,
      "▁Lebens": 3535,
      "reuz": 3536,
      "▁steht": 3537,
      "bl": 3538,
      "jahr": 3539,
      "▁first": 3540,
      "▁(s": 3541,
      "▁Vater": 3542,
      "▁ging": 3543,
      "▁wurde,": 3544,
      "▁folgenden": 3545,
      "▁heraus": 3546,
      "▁innerhalb": 3547,
      "90": 3548,
      "ocument": 3549,
      "mod": 3550,
      "er\n": 3551,
      "▁wür": 3552,
      "el,": 3553,
      "▁Rolle": 3554,
      "▁Lin": 3555,
      "▁Ost": 3556,
      "sert": 3557,
      "üb": 3558,
      "▁Seine": 3559,
      "▁(K": 3560,
      "▁2019": 3561,
      "################################": 3562,
      "▁erstmals": 3563,
      "▁Metho": 3564,
      "ider": 3565,
      "▁Sal": 3566,
      "▁Bü": 3567,
      "ungen,": 3568,
      "▁Je": 3569,
      "▁Comm": 3570,
      "ibli": 3571,
      "platz": 3572,
      "ipp": 3573,
      "österreich": 3574,
      "schutz": 3575,
      "▁Ergeb": 3576,
      "word": 3577,
      "▁same": 3578,
      "amb": 3579,
      "▁La": 3580,
      "reiche": 3581,
      "gesamt": 3582,
      "▁values": 3583,
      "▁jewei": 3584,
      "OR": 3585,
      "dings": 3586,
      "ruf": 3587,
      "▁zus": 3588,
      "▁frei": 3589,
      "▁(d": 3590,
      "▁Weiter": 3591,
      "ochter": 3592,
      "value": 3593,
      "urf": 3594,
      "▁Will": 3595,
      "iver": 3596,
      "▁2018": 3597,
      "20\n": 3598,
      "▁loop": 3599,
      "ge,": 3600,
      "▁bra": 3601,
      "▁Meister": 3602,
      "ampf": 3603,
      "▁Wohn": 3604,
      "raph": 3605,
      "▁\"A": 3606,
      "▁Bef": 3607,
      "▁Franz": 3608,
      "▁Entwicklung": 3609,
      "IT": 3610,
      "ward": 3611,
      "alk": 3612,
      "▁match": 3613,
      "ager": 3614,
      "Re": 3615,
      "wig": 3616,
      "äf": 3617,
      "▁sc": 3618,
      "▁(c": 3619,
      "raum": 3620,
      "▁an.": 3621,
      "80": 3622,
      "▁(C": 3623,
      "cker": 3624,
      "▁polit": 3625,
      "▁line": 3626,
      "▁rel": 3627,
      "ennen": 3628,
      "▁10.": 3629,
      "-b": 3630,
      "kten": 3631,
      "wie": 3632,
      "ierungs": 3633,
      "▁Code": 3634,
      "▁komp": 3635,
      "▁aufge": 3636,
      "▁schon": 3637,
      "▁Frauen": 3638,
      "x1": 3639,
      "straße": 3640,
      "▁a.": 3641,
      "▁3\n": 3642,
      "▁Prov": 3643,
      "athol": 3644,
      "ölker": 3645,
      "sprün": 3646,
      "▁Dem": 3647,
      "▁Dok": 3648,
      "ingle": 3649,
      "▁2015": 3650,
      "▁[\"": 3651,
      "▁2006": 3652,
      "hält": 3653,
      "▁Rad": 3654,
      "▁Schauspiel": 3655,
      "▁seines": 3656,
      "ccess": 3657,
      "s:\n": 3658,
      "wand": 3659,
      "isk": 3660,
      "▁Fest": 3661,
      "indung": 3662,
      "da": 3663,
      "druck": 3664,
      "▁zahl": 3665,
      "▁Mari": 3666,
      "▁true": 3667,
      "▁studierte": 3668,
      "pts": 3669,
      "▁#\n": 3670,
      "▁OR": 3671,
      "eding": 3672,
      "lieb": 3673,
      "▁Herz": 3674,
      "fr": 3675,
      "var": 3676,
      "iner": 3677,
      "inal": 3678,
      "▁besteht": 3679,
      "rue": 3680,
      "▁5%": 3681,
      "jähr": 3682,
      "an,": 3683,
      "▁sim": 3684,
      "▁more": 3685,
      "▁Name": 3686,
      "▁Sport": 3687,
      "ibliothe": 3688,
      "\".\n": 3689,
      "f,": 3690,
      "kreis": 3691,
      "▁case": 3692,
      "log": 3693,
      "ände": 3694,
      "ody": 3695,
      "mar": 3696,
      "ttp": 3697,
      "schließend": 3698,
      "-c": 3699,
      "hein": 3700,
      "horn": 3701,
      "jet": 3702,
      "inen": 3703,
      "▁Erst": 3704,
      "folge": 3705,
      "▁Forsch": 3706,
      "▁variables": 3707,
      "ständig": 3708,
      "recke": 3709,
      "s:": 3710,
      "▁Bürger": 3711,
      "▁Text": 3712,
      "▁Hil": 3713,
      "ometer": 3714,
      "▁Ern": 3715,
      "▁187": 3716,
      "64": 3717,
      "▁Tochter": 3718,
      "▁erreich": 3719,
      "nete": 3720,
      "▁Bereich": 3721,
      "plic": 3722,
      "▁0.05": 3723,
      "99": 3724,
      "ette": 3725,
      "▁John": 3726,
      "▁kl": 3727,
      "▁41": 3728,
      "herr": 3729,
      "avon": 3730,
      "▁0.25": 3731,
      "▁Them": 3732,
      "▁hinter": 3733,
      "▁müssen": 3734,
      "▁br": 3735,
      "▁B.": 3736,
      "iert.\n": 3737,
      "▁erschien": 3738,
      "\\_": 3739,
      "iew": 3740,
      "▁min": 3741,
      "▁lin": 3742,
      "▁Dieser": 3743,
      "▁spez": 3744,
      "▁Gew": 3745,
      "▁langu": 3746,
      "▁Folge": 3747,
      "urrent": 3748,
      "5,": 3749,
      "heits": 3750,
      "ml": 3751,
      "▁some": 3752,
      "▁voll": 3753,
      "▁viele": 3754,
      "▁Ehe": 3755,
      "schei": 3756,
      "▁run": 3757,
      "acter": 3758,
      "▁2021": 3759,
      "pe": 3760,
      "alten": 3761,
      "asse": 3762,
      "igten": 3763,
      "inger": 3764,
      "ilitär": 3765,
      "ival": 3766,
      "▁Alb": 3767,
      "örd": 3768,
      "\";\n": 3769,
      "▁If": 3770,
      "▁18.": 3771,
      "...\n": 3772,
      "▁arbeitete": 3773,
      "gor": 3774,
      "ig,": 3775,
      "▁Python": 3776,
      "amens": 3777,
      "▁15.": 3778,
      "▁Prozent": 3779,
      "anten": 3780,
      "▁San": 3781,
      "▁Rich": 3782,
      "▁Zug": 3783,
      "onn": 3784,
      "techn": 3785,
      "▁Kap": 3786,
      "genommen": 3787,
      "▁2020": 3788,
      "▁Ziel": 3789,
      "▁184": 3790,
      "▁2016": 3791,
      "arbeit": 3792,
      "▁gehörte": 3793,
      "helm": 3794,
      "IS": 3795,
      "▁ass": 3796,
      "▁setz": 3797,
      "▁multi": 3798,
      "usch": 3799,
      "ußen": 3800,
      "▁25%": 3801,
      "▁Jahrhunderts": 3802,
      "zel": 3803,
      "▁Besch": 3804,
      "▁hel": 3805,
      "omit": 3806,
      "▁bezeichnet": 3807,
      "▁5\n": 3808,
      "essor": 3809,
      "▁2013": 3810,
      "▁only": 3811,
      "▁wegen": 3812,
      "NA": 3813,
      "zi": 3814,
      "üh": 3815,
      "ams": 3816,
      "▁Lu": 3817,
      "uffer": 3818,
      "▁Jose": 3819,
      "▁versuch": 3820,
      "▁7.": 3821,
      "▁neben": 3822,
      "omin": 3823,
      "▁call": 3824,
      "▁verst": 3825,
      "▁Int": 3826,
      "uble": 3827,
      "▁expression": 3828,
      "▁sollte": 3829,
      "▁bas": 3830,
      "ight": 3831,
      "▁pl": 3832,
      "▁bede": 3833,
      "▁wird,": 3834,
      "▁your": 3835,
      "▁0.75": 3836,
      "▁2022": 3837,
      "):": 3838,
      "-J": 3839,
      "▁Du": 3840,
      "▁Kn": 3841,
      "▁(f": 3842,
      "▁Co": 3843,
      "euer": 3844,
      "▁wird.": 3845,
      "200": 3846,
      "ane": 3847,
      "onnen": 3848,
      "▁Mich": 3849,
      "▁loc": 3850,
      "grenz": 3851,
      "ithub": 3852,
      "nahmen": 3853,
      "aar": 3854,
      "github": 3855,
      "▁Bis": 3856,
      "raft": 3857,
      "▁Jahres": 3858,
      "arlament": 3859,
      ".org/": 3860,
      "23": 3861,
      "\\n": 3862,
      "reichte": 3863,
      "ros": 3864,
      "ischof": 3865,
      "▁gem": 3866,
      "▁Gebäude": 3867,
      "sweise": 3868,
      "schein": 3869,
      "▁2005": 3870,
      "▁Funktionen": 3871,
      "(f": 3872,
      "->": 3873,
      "sg": 3874,
      "üler": 3875,
      "ief": 3876,
      "▁Sim": 3877,
      "tet.": 3878,
      "▁two": 3879,
      "scheid": 3880,
      "▁2017": 3881,
      "treten": 3882,
      "▁75%": 3883,
      "hard": 3884,
      "lungen": 3885,
      "uter": 3886,
      "▁Do": 3887,
      "▁Vi": 3888,
      "▁20.": 3889,
      "ben.": 3890,
      "eicher": 3891,
      "ause": 3892,
      "-Sch": 3893,
      "▁2023": 3894,
      "gaben": 3895,
      "itiv": 3896,
      "▁Klasse": 3897,
      "▁deutsche": 3898,
      "clude": 3899,
      "▁Betrieb": 3900,
      "▁verschiedenen": 3901,
      "▁Ass": 3902,
      "▁bie": 3903,
      "▁brit": 3904,
      "▁Kultur": 3905,
      "▁nun": 3906,
      "▁Port": 3907,
      "▁Ham": 3908,
      "essage": 3909,
      "ommer": 3910,
      "duz": 3911,
      "http://": 3912,
      "(x": 3913,
      "pert": 3914,
      "anst": 3915,
      "▁Wien": 3916,
      "▁Hel": 3917,
      "▁Alter": 3918,
      "▁erfolgte": 3919,
      "▁äl": 3920,
      "▁sechs": 3921,
      "▁void": 3922,
      "bereich": 3923,
      "▁http": 3924,
      "▁Schiff": 3925,
      "▁16.": 3926,
      "▁command": 3927,
      "++": 3928,
      "beh": 3929,
      "e.\n": 3930,
      "hello": 3931,
      "w.": 3932,
      "▁Sel": 3933,
      "elte": 3934,
      "▁Feld": 3935,
      "▁\"B": 3936,
      "▁große": 3937,
      "▁To": 3938,
      "reh": 3939,
      "▁kurz": 3940,
      "▁20%": 3941,
      "örper": 3942,
      "▁lua_": 3943,
      "▁Dorf": 3944,
      "utor": 3945,
      "▁Str": 3946,
      "▁state": 3947,
      "▁Weltkrieg": 3948,
      "▁50%": 3949,
      "besondere": 3950,
      "y\n": 3951,
      "▁rund": 3952,
      "▁uns": 3953,
      "▁10%": 3954,
      "▁follow": 3955,
      "hei": 3956,
      "nell": 3957,
      "ins": 3958,
      "aly": 3959,
      "▁Den": 3960,
      "igkeiten": 3961,
      "reff": 3962,
      "▁wurde.\n": 3963,
      "▁übernahm": 3964,
      "öt": 3965,
      "▁Kais": 3966,
      "▁nörd": 3967,
      "istischen": 3968,
      "ptr": 3969,
      "▁absol": 3970,
      "▁0.20": 3971,
      "way": 3972,
      "▁Sil": 3973,
      "aler": 3974,
      "▁bin": 3975,
      "▁\"T": 3976,
      "indow": 3977,
      "▁USA": 3978,
      "▁result": 3979,
      "schnitt": 3980,
      "ünstler": 3981,
      "ehn": 3982,
      "film": 3983,
      "komm": 3984,
      "▁davon": 3985,
      "▁weit": 3986,
      "▁Fehler": 3987,
      "annte": 3988,
      "▁185": 3989,
      "▁exist": 3990,
      "▁Kirchen": 3991,
      "▁Staats": 3992,
      "ware": 3993,
      "ene": 3994,
      "geord": 3995,
      "letz": 3996,
      "▁(n": 3997,
      "▁Gruppe": 3998,
      "▁Heim": 3999,
      "▁gelang": 4000,
      "▁6\n": 4001,
      "bez": 4002,
      "▁zweite": 4003,
      "▁Grün": 4004,
      "führt": 4005,
      "▁York": 4006,
      "▁Volks": 4007,
      "▁gegründe": 4008,
      "war": 4009,
      "▁As": 4010,
      "▁Führ": 4011,
      "▁foo": 4012,
      "▁Gel": 4013,
      "immen": 4014,
      "icense": 4015,
      "▁sein,": 4016,
      "neut": 4017,
      "▁University": 4018,
      "▁ursprün": 4019,
      "-Z": 4020,
      "fäl": 4021,
      "zuf": 4022,
      "▁Kar": 4023,
      "▁Kop": 4024,
      "▁Res": 4025,
      "▁Rot": 4026,
      "▁error": 4027,
      "▁80": 4028,
      "▁0.15": 4029,
      "ific": 4030,
      "ollection": 4031,
      "▁musste": 4032,
      "▁Einwohner": 4033,
      "▁At": 4034,
      "▁Bern": 4035,
      "▁Män": 4036,
      "▁Cl": 4037,
      "▁aufgrund": 4038,
      "aher": 4039,
      "▁Regel": 4040,
      "▁15%": 4041,
      "▁heut": 4042,
      "▁```\n": 4043,
      "-s": 4044,
      "▁Sub": 4045,
      "▁weil": 4046,
      "▁Tem": 4047,
      "ject": 4048,
      "10\n": 4049,
      "24": 4050,
      "hil": 4051,
      "heiten": 4052,
      "▁\"M": 4053,
      "abel": 4054,
      "▁Ob": 4055,
      "▁14.": 4056,
      "▁28.": 4057,
      "▁~": 4058,
      "▁equ": 4059,
      "▁Rechts": 4060,
      "vers": 4061,
      "▁0.10": 4062,
      "▁0.50": 4063,
      "▁17.": 4064,
      "plement": 4065,
      "▁gehört": 4066,
      "▁«": 4067,
      "▁My": 4068,
      "▁(G": 4069,
      "▁Tom": 4070,
      "iken": 4071,
      "▁then": 4072,
      "▁Proble": 4073,
      "▁Nachdem": 4074,
      "▁weiteren": 4075,
      "▁Paris": 4076,
      "▁Wilhelm": 4077,
      "AL": 4078,
      "▁App": 4079,
      "ichten": 4080,
      "olon": 4081,
      "▁kn": 4082,
      "ular": 4083,
      "ski": 4084,
      "-amerikan": 4085,
      "I.": 4086,
      "▁Park": 4087,
      "▁Open": 4088,
      "▁Zentr": 4089,
      "▁ist.\n": 4090,
      "▁Jugend": 4091,
      "äfts": 4092,
      "ßen": 4093,
      "äft": 4094,
      "▁up": 4095,
      "▁Mutter": 4096,
      "▁(N": 4097,
      "▁War": 4098,
      "▁Test": 4099,
      "▁erreichte": 4100,
      "ille": 4101,
      "quest": 4102,
      "agement": 4103,
      "▁returns": 4104,
      "▁Österreich": 4105,
      "rem": 4106,
      "s)": 4107,
      "erv": 4108,
      "▁Fach": 4109,
      "▁over": 4110,
      "▁4\n": 4111,
      "ennt": 4112,
      "1)": 4113,
      "2)": 4114,
      "möglich": 4115,
      "völker": 4116,
      "–18": 4117,
      "itut": 4118,
      "▁tätig": 4119,
      "▁erneut": 4120,
      "sport": 4121,
      "▁them": 4122,
      "▁70": 4123,
      "▁etwas": 4124,
      "teilung": 4125,
      "▁eigenen": 4126,
      "▁Frankreich": 4127,
      "▁Heinrich": 4128,
      "ram": 4129,
      "anischen": 4130,
      "▁AN": 4131,
      "▁Kan": 4132,
      "rif": 4133,
      "▁unterstütz": 4134,
      "();\n": 4135,
      "ie,": 4136,
      "eisten": 4137,
      "▁Ag": 4138,
      "▁Gott": 4139,
      "▁erhalten": 4140,
      "▁histor": 4141,
      "▁sicher": 4142,
      "minister": 4143,
      "\"]\n": 4144,
      "▁sum": 4145,
      "▁Wald": 4146,
      "▁Ter": 4147,
      "▁verm": 4148,
      "▁8\n": 4149,
      "▁beginn": 4150,
      "▁Des": 4151,
      "▁ein.": 4152,
      "▁nutz": 4153,
      "▁erziel": 4154,
      "▁Straß": 4155,
      "weiter": 4156,
      "▁Alt": 4157,
      "ammlung": 4158,
      "▁führte": 4159,
      "▁Autor": 4160,
      "%%%%": 4161,
      "üssel": 4162,
      "▁Zwischen": 4163,
      "IC": 4164,
      "bs": 4165,
      "yl": 4166,
      "ions": 4167,
      "▁Wieder": 4168,
      "ation\n": 4169,
      "rank": 4170,
      "umente": 4171,
      "▁schließlich": 4172,
      "▁wechselte": 4173,
      "SE": 4174,
      "uper": 4175,
      "eigt": 4176,
      "array": 4177,
      "▁Dav": 4178,
      "▁mö": 4179,
      "▁10\n": 4180,
      "Int": 4181,
      "▁contain": 4182,
      "▁character": 4183,
      "Array": 4184,
      "▁Kilometer": 4185,
      "▁Bay": 4186,
      "▁(H": 4187,
      "▁Lauf": 4188,
      "▁Luft": 4189,
      "Name": 4190,
      "ieb": 4191,
      "▁Dienst": 4192,
      "iges": 4193,
      "▁Math": 4194,
      "▁Fort": 4195,
      "tend": 4196,
      "▁Pal": 4197,
      "▁Richt": 4198,
      "▁Rah": 4199,
      "▁World": 4200,
      "▁I.": 4201,
      "▁Jack": 4202,
      "ing,": 4203,
      "▁lä": 4204,
      "▁Zur": 4205,
      "ugh": 4206,
      "▁};\n": 4207,
      "▁General": 4208,
      "wahl": 4209,
      "▁(T": 4210,
      "olo": 4211,
      "▁versch": 4212,
      "auch": 4213,
      "▁rec": 4214,
      "▁2004": 4215,
      "fluss": 4216,
      "by": 4217,
      "yd": 4218,
      "attern": 4219,
      "▁vert": 4220,
      "▁Off": 4221,
      "uchs": 4222,
      "spro": 4223,
      "▁Bedeut": 4224,
      "▁8.": 4225,
      "ifiz": 4226,
      "▁US-amerikan": 4227,
      "github.com/": 4228,
      "▁österreich": 4229,
      "lean": 4230,
      "▁Wirt": 4231,
      "▁Che": 4232,
      "▁Schüler": 4233,
      "add": 4234,
      "▁worden": 4235,
      "8.": 4236,
      "a)": 4237,
      "f.": 4238,
      "arm": 4239,
      "ikation": 4240,
      "rid": 4241,
      "▁7\n": 4242,
      "▁Theater": 4243,
      "Ex": 4244,
      "igte": 4245,
      "hren": 4246,
      "▁Ha": 4247,
      "▁Zum": 4248,
      "▁Sprache": 4249,
      "▁abge": 4250,
      "ymn": 4251,
      "▁Liste": 4252,
      "_c": 4253,
      "fass": 4254,
      "hö": 4255,
      "▁Dire": 4256,
      "▁Mag": 4257,
      "▁Russ": 4258,
      "▁OUT": 4259,
      "▁star": 4260,
      "▁Index": 4261,
      "▁unterschied": 4262,
      "▁90": 4263,
      "▁Markt": 4264,
      "▁Arbeits": 4265,
      "östlich": 4266,
      "▁Seiten": 4267,
      "▁Web": 4268,
      "schrift": 4269,
      "▁erstell": 4270,
      "▁53": 4271,
      "akter": 4272,
      "▁13.": 4273,
      "▁Burg": 4274,
      "ibliothek": 4275,
      ".t": 4276,
      "ias": 4277,
      "urn": 4278,
      "▁Eich": 4279,
      "▁Kor": 4280,
      "▁Gu": 4281,
      "▁häuf": 4282,
      "▁bew": 4283,
      "▁auf,": 4284,
      "▁4,": 4285,
      "▁read": 4286,
      "▁Bez": 4287,
      "▁hinaus": 4288,
      "▁does": 4289,
      "aktion": 4290,
      "num": 4291,
      "oppel": 4292,
      "▁oft": 4293,
      "okrat": 4294,
      "▁gewähl": 4295,
      "zeichnung": 4296,
      "atrix": 4297,
      "=\"": 4298,
      "PUT": 4299,
      "ael": 4300,
      "arz": 4301,
      "▁nieder": 4302,
      "▁Version": 4303,
      "änd": 4304,
      "▁sind.": 4305,
      "▁hatte,": 4306,
      "▁functions": 4307,
      "▁Besitz": 4308,
      "-Ver": 4309,
      "▁Provinz": 4310,
      "enen": 4311,
      "▁Dabei": 4312,
      "▁(L": 4313,
      "▁Not": 4314,
      "▁part": 4315,
      "▁gut": 4316,
      "afür": 4317,
      "spiele": 4318,
      "hnen": 4319,
      "opy": 4320,
      "▁Einsatz": 4321,
      "▁habe": 4322,
      "▁\t\t": 4323,
      "▁besuch": 4324,
      "-An": 4325,
      "▁output": 4326,
      "▁\"Hello": 4327,
      ".p": 4328,
      "L_": 4329,
      "deutsch": 4330,
      "▁PS": 4331,
      "▁(R": 4332,
      "▁Techn": 4333,
      "ürz": 4334,
      "▁bevor": 4335,
      "annt": 4336,
      "▁std": 4337,
      "▁Mitte": 4338,
      "ava": 4339,
      "antwort": 4340,
      "▁sowohl": 4341,
      "▁---\n": 4342,
      "schließlich": 4343,
      "rolle": 4344,
      "▁Standard": 4345,
      "▁Höhe": 4346,
      "air": 4347,
      "ja": 4348,
      "▁di": 4349,
      "▁dat": 4350,
      "▁Fe": 4351,
      "▁Et": 4352,
      "▁(def": 4353,
      "heb": 4354,
      "▁On": 4355,
      "▁Ins": 4356,
      "▁röm": 4357,
      "▁9.": 4358,
      "arbeiten": 4359,
      "▁großen": 4360,
      "▁declar": 4361,
      "dition": 4362,
      "wär": 4363,
      "▁doch": 4364,
      "itte": 4365,
      "itter": 4366,
      "▁blieb": 4367,
      "ush": 4368,
      "▁Pre": 4369,
      "▁Tro": 4370,
      "ablen": 4371,
      "▁2001": 4372,
      "▁besonder": 4373,
      "-In": 4374,
      "▁ä": 4375,
      "ename": 4376,
      "▁Bru": 4377,
      "▁ab.": 4378,
      "▁kommt": 4379,
      "▁Red": 4380,
      "ets": 4381,
      "ieren.\n": 4382,
      "▁NS": 4383,
      "▁geht": 4384,
      "▁20\n": 4385,
      "▁the\n": 4386,
      "ändern": 4387,
      "▁::": 4388,
      "▁11.": 4389,
      "34": 4390,
      "▁Sicher": 4391,
      "▁west": 4392,
      "▁Position": 4393,
      "▁Lua": 4394,
      "ents": 4395,
      "▁entfern": 4396,
      "▁Spieler": 4397,
      "▁zusätz": 4398,
      "DR": 4399,
      "▁Bank": 4400,
      "▁TH": 4401,
      "▁struct": 4402,
      "ica": 4403,
      "▁its": 4404,
      "▁Unterstütz": 4405,
      "richtung": 4406,
      "▁Rahmen": 4407,
      "ahe": 4408,
      "dienst": 4409,
      "▁Sommer": 4410,
      "▁wahr": 4411,
      "▁me": 4412,
      "▁Go": 4413,
      "schen": 4414,
      "ower": 4415,
      "▁default": 4416,
      "▁verschiedene": 4417,
      "▁fast": 4418,
      "▁Kom": 4419,
      "affen": 4420,
      "leist": 4421,
      "▁Muse": 4422,
      "4.1": 4423,
      "▁Zweiten": 4424,
      "▁jeweils": 4425,
      "5.": 4426,
      "on,": 4427,
      "▁Mot": 4428,
      "▁Lig": 4429,
      "bildung": 4430,
      "pre": 4431,
      "publik": 4432,
      "itial": 4433,
      "al,": 4434,
      "▁Mehr": 4435,
      "▁color": 4436,
      "▁statt": 4437,
      "▁**": 4438,
      "quire": 4439,
      "ymp": 4440,
      "altung": 4441,
      "▁into": 4442,
      "eight": 4443,
      "länd": 4444,
      "ches": 4445,
      "▁Mart": 4446,
      "▁Eing": 4447,
      "▁Hof": 4448,
      "▁Schrift": 4449,
      "ourn": 4450,
      "▁Geschäfts": 4451,
      "setzung": 4452,
      "8}{": 4453,
      "figur": 4454,
      "med": 4455,
      "▁document": 4456,
      "unkte": 4457,
      "▁Alex": 4458,
      "▁input": 4459,
      "▁float": 4460,
      "oper": 4461,
      "▁1999": 4462,
      "arbeiter": 4463,
      "▁allerdings": 4464,
      "▁automat": 4465,
      "-f": 4466,
      "fix": 4467,
      "wor": 4468,
      "yr": 4469,
      "its": 4470,
      "▁meisten": 4471,
      "sche": 4472,
      "▁Verwendung": 4473,
      "▁than": 4474,
      "▁leb": 4475,
      "▁;;;": 4476,
      "▁Werte": 4477,
      "▁Schweiz": 4478,
      "so": 4479,
      "▁(E": 4480,
      "▁License": 4481,
      "▁Einzel": 4482,
      "▁Amt": 4483,
      "▁while": 4484,
      "▁Frankf": 4485,
      "alled": 4486,
      "Class": 4487,
      "▁öff": 4488,
      "▁diff": 4489,
      "st,": 4490,
      "▁fort": 4491,
      "▁Klein": 4492,
      "▁näch": 4493,
      "▁(in": 4494,
      "▁schwer": 4495,
      "▁Regierung": 4496,
      "ole.": 4497,
      "ION": 4498,
      "▁text": 4499,
      "▁Sm": 4500,
      "▁Außerdem": 4501,
      "▁meist": 4502,
      "▁pass": 4503,
      "iven": 4504,
      "▁Fernseh": 4505,
      "TH": 4506,
      "kun": 4507,
      "ars": 4508,
      "▁com": 4509,
      "▁current": 4510,
      "▁besitz": 4511,
      "▁Team": 4512,
      "kirche": 4513,
      "▁language": 4514,
      "3)": 4515,
      "Number": 4516,
      "äischen": 4517,
      "stat": 4518,
      "stück": 4519,
      "itu": 4520,
      "▁mir": 4521,
      "▁max": 4522,
      "obert": 4523,
      "▁Zeichenk": 4524,
      "▁Produktion": 4525,
      "nehmer": 4526,
      "▁Sü": 4527,
      "▁Seite": 4528,
      "geber": 4529,
      "▁mein": 4530,
      "ufen": 4531,
      "▁Ir": 4532,
      "▁Ide": 4533,
      "▁prä": 4534,
      "abhäng": 4535,
      "▁start": 4536,
      "▁starb": 4537,
      "ically": 4538,
      "▁wird.\n": 4539,
      "ible": 4540,
      "▁priv": 4541,
      "radition": 4542,
      "********": 4543,
      "▁OUTPUT": 4544,
      "-t": 4545,
      "LE": 4546,
      "_s": 4547,
      "aur": 4548,
      "▁zog": 4549,
      "▁Masch": 4550,
      "ilder": 4551,
      "▁alten": 4552,
      "▁[1,": 4553,
      "▁12\n": 4554,
      "▁Thom": 4555,
      "▁Gebiet": 4556,
      "▁Mannschaft": 4557,
      "▁absolv": 4558,
      "gar": 4559,
      "er.\n": 4560,
      "▁z.": 4561,
      "▁Mel": 4562,
      "▁(b": 4563,
      "andid": 4564,
      "schaft,": 4565,
      "▁hinzu": 4566,
      "erstör": 4567,
      "SS": 4568,
      "lisch": 4569,
      "rück": 4570,
      "ült": 4571,
      "▁Sol": 4572,
      "schiff": 4573,
      "denten": 4574,
      "▁gre": 4575,
      "▁Erk": 4576,
      "ern.": 4577,
      "▁arb": 4578,
      "ustrie": 4579,
      "ftware": 4580,
      "▁Max": 4581,
      "wohl": 4582,
      "▁Schweizer": 4583,
      "Val": 4584,
      "▁woll": 4585,
      "de,": 4586,
      "▁Hans": 4587,
      "▁option": 4588,
      "▁Insel": 4589,
      "check": 4590,
      "▁180": 4591,
      "▁60": 4592,
      "▁insbesondere": 4593,
      "ämpf": 4594,
      "_f": 4595,
      "ügel": 4596,
      "▁Gro": 4597,
      "▁allen": 4598,
      "ehm": 4599,
      "▁ließ": 4600,
      "▁gegenüber": 4601,
      "aterial": 4602,
      "▁1945": 4603,
      "▁true\n": 4604,
      "itäten": 4605,
      "wirtschaft": 4606,
      "1]": 4607,
      "rän": 4608,
      "stelle": 4609,
      "▁such": 4610,
      "emat": 4611,
      "▁hoch": 4612,
      "lich,": 4613,
      "▁Stu": 4614,
      "▁30.": 4615,
      "▁sind,": 4616,
      "produ": 4617,
      "▁parameter": 4618,
      "▁Begriff": 4619,
      "27\n": 4620,
      "ector": 4621,
      "xt": 4622,
      "▁ra": 4623,
      "▁)\n": 4624,
      "▁(20": 4625,
      "▁Lo": 4626,
      "▁Schule": 4627,
      "eilen": 4628,
      "▁u.": 4629,
      "vangel": 4630,
      "21": 4631,
      "glichen": 4632,
      "i.": 4633,
      "▁dien": 4634,
      "▁Parlament": 4635,
      "html": 4636,
      "▁lei": 4637,
      "▁darunter": 4638,
      "ength": 4639,
      "▁ihnen": 4640,
      "▁benutz": 4641,
      "▁II.": 4642,
      "fen,": 4643,
      "kauf": 4644,
      "▁ähn": 4645,
      "eidig": 4646,
      "▁außer": 4647,
      "▁Fil": 4648,
      "▁Pap": 4649,
      "▁hal": 4650,
      "▁Vier": 4651,
      "▁lange": 4652,
      "lav": 4653,
      "beck": 4654,
      "anzen": 4655,
      "▁1998": 4656,
      "▁Millionen": 4657,
      "▁Objekt": 4658,
      "▁local": 4659,
      "ID": 4660,
      "chten": 4661,
      "steh": 4662,
      "ana": 4663,
      "▁back": 4664,
      "▁null": 4665,
      "▁Raum": 4666,
      "▁Cor": 4667,
      "▁stamm": 4668,
      "▁haben,": 4669,
      "▁insgesamt": 4670,
      "▁Pfarr": 4671,
      "▁Informationen": 4672,
      "▁OUTPUT:": 4673,
      "AM": 4674,
      "▁dafür": 4675,
      "▁aktiv": 4676,
      "tet,": 4677,
      "▁Austr": 4678,
      "▁blei": 4679,
      "▁Mo": 4680,
      "▁fe": 4681,
      "▁Lud": 4682,
      "▁Leist": 4683,
      "▁\"W": 4684,
      "▁Verwalt": 4685,
      "▁Bevölker": 4686,
      "ING": 4687,
      "▁Freund": 4688,
      "-Un": 4689,
      "RI": 4690,
      "To": 4691,
      "▁indem": 4692,
      "ung.\n": 4693,
      "▁Möglich": 4694,
      "▁FC": 4695,
      "▁nie": 4696,
      "▁Hin": 4697,
      "▁\"C": 4698,
      "gram": 4699,
      "▁genutz": 4700,
      "▁2024": 4701,
      "▁beteil": 4702,
      "plicit": 4703,
      "(n": 4704,
      "RE": 4705,
      "▁Geld": 4706,
      "▁angeb": 4707,
      "▁Staff": 4708,
      "imal": 4709,
      "▁Georg": 4710,
      "20?\n": 4711,
      "▁<<": 4712,
      "▁work": 4713,
      "6}{": 4714,
      "hor": 4715,
      "pfer": 4716,
      "schul": 4717,
      "▁Liter": 4718,
      "lichkeit": 4719,
      "glieder": 4720,
      "▁führt": 4721,
      "▁Archite": 4722,
      "ep": 4723,
      "sätz": 4724,
      "z.": 4725,
      "▁test": 4726,
      "▁Eur": 4727,
      "▁Viel": 4728,
      "▁Count": 4729,
      "▁Stat": 4730,
      "ika": 4731,
      "ritte": 4732,
      "peratur": 4733,
      "prü": 4734,
      "aß": 4735,
      "key": 4736,
      "▁Air": 4737,
      "ask": 4738,
      "▁2002": 4739,
      "▁proc": 4740,
      "geschlossen": 4741,
      "▁Gesamt": 4742,
      "▁letzte": 4743,
      "▁Turn": 4744,
      "▁Tabelle": 4745,
      "▁Michael": 4746,
      "__": 4747,
      "tlich": 4748,
      "äum": 4749,
      "␤»": 4750,
      "▁Dam": 4751,
      "▁\\*": 4752,
      "▁Rö": 4753,
      "gen.\n": 4754,
      "▁\"F": 4755,
      "▁aus.": 4756,
      "bewer": 4757,
      "neten": 4758,
      "folger": 4759,
      "▁1990": 4760,
      "-Pro": 4761,
      "────────": 4762,
      "7.": 4763,
      "des": 4764,
      "foo": 4765,
      "ante": 4766,
      "dete": 4767,
      "▁Kin": 4768,
      "▁Pat": 4769,
      "▁Geh": 4770,
      "▁Ru": 4771,
      "▁Wo": 4772,
      "serv": 4773,
      "▁just": 4774,
      "▁need": 4775,
      "ikanischen": 4776,
      "www.": 4777,
      "▁ehemaligen": 4778,
      "ymnas": 4779,
      "List": 4780,
      "alist": 4781,
      "▁Weg": 4782,
      "den.\n": 4783,
      "▁\"t": 4784,
      "que": 4785,
      "▁2003": 4786,
      "▁16\n": 4787,
      "präsent": 4788,
      "inner": 4789,
      "▁Ak": 4790,
      "▁Dreh": 4791,
      "ded": 4792,
      "▁nil": 4793,
      "dens": 4794,
      "▁Heil": 4795,
      "▁\"c": 4796,
      "▁log": 4797,
      "▁gl": 4798,
      "ielle": 4799,
      "▁Vert": 4800,
      "ester": 4801,
      "▁Sied": 4802,
      "▁0\n": 4803,
      "▁arg": 4804,
      "▁&&": 4805,
      "gemeinde": 4806,
      "▁Eisen": 4807,
      "];\n": 4808,
      "gra": 4809,
      "y.": 4810,
      "zig": 4811,
      "▁Amer": 4812,
      "itive": 4813,
      "gegen": 4814,
      "▁Frü": 4815,
      "▁Netz": 4816,
      "liches": 4817,
      "▁beende": 4818,
      "▁Erz": 4819,
      "erne": 4820,
      "eicht": 4821,
      "▁hatten": 4822,
      "rägt": 4823,
      "#\n": 4824,
      "s/": 4825,
      "ara": 4826,
      "▁einmal": 4827,
      "▁mich": 4828,
      "▁make": 4829,
      "▁Mil": 4830,
      "▁nord": 4831,
      "ache": 4832,
      "▁\"E": 4833,
      "▁bestand": 4834,
      "▁18\n": 4835,
      "▁schnell": 4836,
      "▁sozial": 4837,
      "▁Orts": 4838,
      "zeichen": 4839,
      "zeitig": 4840,
      "////////////////////////////////": 4841,
      "▁Beginn": 4842,
      "▁Politiker": 4843,
      "Script": 4844,
      "bank": 4845,
      "ca": 4846,
      "atten": 4847,
      "▁fl": 4848,
      "▁Eben": 4849,
      "▁Rel": 4850,
      "▁Robert": 4851,
      "▁Os": 4852,
      "▁Reihe": 4853,
      "▁Kommun": 4854,
      "▁stellt": 4855,
      "▁direkt": 4856,
      "PI": 4857,
      "lungs": 4858,
      "welt": 4859,
      "etten": 4860,
      "▁bed": 4861,
      "▁each": 4862,
      "▁Regen": 4863,
      "ception": 4864,
      "▁Organis": 4865,
      "burger": 4866,
      "spielsweise": 4867,
      "▁types": 4868,
      "zept": 4869,
      "▁gesam": 4870,
      "gestellt": 4871,
      "▁Studium": 4872,
      "▁England": 4873,
      "▁Thomas": 4874,
      "6,": 4875,
      "ous": 4876,
      "▁syntax": 4877,
      "einander": 4878,
      "asil": 4879,
      "▁may": 4880,
      "▁Graf": 4881,
      "anden": 4882,
      "▁eröff": 4883,
      "▁Histor": 4884,
      "▁gegeben": 4885,
      "▁Straße": 4886,
      "▁Use": 4887,
      "ikel": 4888,
      "ation,": 4889,
      "ages": 4890,
      "▁exp": 4891,
      "▁prov": 4892,
      "valu": 4893,
      "arriere": 4894,
      "▁...\n": 4895,
      "▁Sow": 4896,
      "itle": 4897,
      "isse": 4898,
      "▁ober": 4899,
      "izei": 4900,
      "laub": 4901,
      "▁name:": 4902,
      "▁erwähn": 4903,
      "fel": 4904,
      "fter": 4905,
      "vest": 4906,
      "stieg": 4907,
      "onen": 4908,
      "▁zehn": 4909,
      "▁ersetz": 4910,
      "reak": 4911,
      "▁IN": 4912,
      "achen": 4913,
      "▁\"d": 4914,
      "▁ant": 4915,
      "▁Schm": 4916,
      "▁Ang": 4917,
      "▁Bezieh": 4918,
      "▁eigene": 4919,
      "▁Stelle": 4920,
      "▁Leip": 4921,
      "▁statement": 4922,
      "n,": 4923,
      "nehmen": 4924,
      "uen": 4925,
      "wit": 4926,
      "▁üb": 4927,
      "▁wid": 4928,
      "alität": 4929,
      "▁Eigen": 4930,
      "▁Pass": 4931,
      "▁Wimmer": 4932,
      "▁gilt": 4933,
      "▁russ": 4934,
      "orth": 4935,
      "▁Projekt": 4936,
      "▁1994": 4937,
      "fasst": 4938,
      "):\n": 4939,
      "3D": 4940,
      "[0": 4941,
      "▁acht": 4942,
      "▁Div": 4943,
      "dest": 4944,
      "▁num": 4945,
      "▁names": 4946,
      "utt": 4947,
      "▁\"G": 4948,
      "▁International": 4949,
      "verein": 4950,
      "ochen": 4951,
      "grün": 4952,
      "side": 4953,
      "▁erklär": 4954,
      "▁David": 4955,
      "ect": 4956,
      "ful": 4957,
      "▁Au": 4958,
      "igh": 4959,
      "▁Köl": 4960,
      "▁Gl": 4961,
      "rakt": 4962,
      "▁kehr": 4963,
      "ices": 4964,
      "▁beispielsweise": 4965,
      "ätte": 4966,
      "▁\\frac{2": 4967,
      "▁Kaiser": 4968,
      "▁Unterstützung": 4969,
      "pol": 4970,
      "ühl": 4971,
      "▁dan": 4972,
      "ital": 4973,
      "▁Wh": 4974,
      "▁Jo": 4975,
      "▁Cons": 4976,
      "▁Osten": 4977,
      "▁///": 4978,
      "▁Alle": 4979,
      "▁hat,": 4980,
      "echt": 4981,
      "mannschaft": 4982,
      "appen": 4983,
      "▁Benutz": 4984,
      "-in": 4985,
      "ited": 4986,
      "kn": 4987,
      "▁daher": 4988,
      "stab": 4989,
      "leb": 4990,
      "▁Gre": 4991,
      "▁gel": 4992,
      "▁gelegen": 4993,
      "▁called": 4994,
      "rug": 4995,
      "▁End": 4996,
      "▁exec": 4997,
      "fahrt": 4998,
      "▁Priv": 4999,
      "▁Ergebnis": 5000,
      "▁absolvierte": 5001,
      "data": 5002,
      "ints": 5003,
      "▁international": 5004,
      "▁einigen": 5005,
      "uff": 5006,
      "ären": 5007,
      "▁11\n": 5008,
      "▁hervor": 5009,
      "▁println": 5010,
      "▁findet": 5011,
      "▁Familien": 5012,
      "▁München": 5013,
      "▁Flughaf": 5014,
      "map": 5015,
      "rist": 5016,
      "eier": 5017,
      "▁single": 5018,
      "▁Ko": 5019,
      "▁Kreuz": 5020,
      "▁nahe": 5021,
      "ammer": 5022,
      "▁Wolf": 5023,
      "schlag": 5024,
      "▁lok": 5025,
      "▁OF": 5026,
      "eller": 5027,
      "imeter": 5028,
      "▁Anna": 5029,
      "▁hatte.": 5030,
      "echan": 5031,
      "ächlich": 5032,
      "part": 5033,
      "▁sog": 5034,
      "lehr": 5035,
      "▁fn": 5036,
      "▁Gold": 5037,
      "▁CD": 5038,
      "▁\"b": 5039,
      "abrik": 5040,
      "▁Rest": 5041,
      "rieges": 5042,
      "▁Sprach": 5043,
      "ler,": 5044,
      "▁9\n": 5045,
      "▁iter": 5046,
      "▁Holz": 5047,
      "▁Ludwig": 5048,
      "gef": 5049,
      "▁zeit": 5050,
      "▁Kant": 5051,
      "▁Gast": 5052,
      "▁kommen": 5053,
      "▁an.\n": 5054,
      "lätz": 5055,
      "▁beide": 5056,
      "▁unser": 5057,
      "▁1995": 5058,
      "▁constru": 5059,
      "▁jeder": 5060,
      "ündung": 5061,
      "eiger": 5062,
      "ar,": 5063,
      "▁Künstler": 5064,
      "▁(W": 5065,
      "ameister": 5066,
      "ollen": 5067,
      "▁Liv": 5068,
      "▁Jur": 5069,
      "ik,": 5070,
      "lose": 5071,
      "ennung": 5072,
      "steller": 5073,
      "▁15\n": 5074,
      "▁condition": 5075,
      "ettbewer": 5076,
      "hader": 5077,
      "▁Variablen": 5078,
      "▁Präsident": 5079,
      "▁Personen": 5080,
      "▁gemeinsam": 5081,
      "sse": 5082,
      "inc": 5083,
      "inst": 5084,
      "▁bool": 5085,
      "▁Don": 5086,
      "▁Function": 5087,
      "annten": 5088,
      "▁Vers": 5089,
      "ersön": 5090,
      "▁\t//": 5091,
      "▁Kriegs": 5092,
      "▁häufig": 5093,
      "ED": 5094,
      "ikt": 5095,
      "ligen": 5096,
      "lua": 5097,
      "erb": 5098,
      "▁Denk": 5099,
      "▁must": 5100,
      "▁Fer": 5101,
      "▁(1": 5102,
      "läuf": 5103,
      "▁schrieb": 5104,
      "ranken": 5105,
      "▁vorhand": 5106,
      "▁Vorsitz": 5107,
      "▁25.": 5108,
      "oolean": 5109,
      "▁bekannt": 5110,
      "▁danach": 5111,
      "':": 5112,
      "testen": 5113,
      "roll": 5114,
      "▁fre": 5115,
      "▁nat": 5116,
      "▁Tal": 5117,
      "▁NO": 5118,
      "▁lassen": 5119,
      "▁Schloss": 5120,
      "▁Anzahl": 5121,
      "ernen": 5122,
      "opt": 5123,
      "▁schloss": 5124,
      "-Funktion": 5125,
      "▁Heimat": 5126,
      "aaten": 5127,
      "fs": 5128,
      "ena": 5129,
      "unt": 5130,
      "▁Kur": 5131,
      "▁Klo": 5132,
      "▁Pe": 5133,
      "▁Psych": 5134,
      "▁Gest": 5135,
      "▁Gleich": 5136,
      "▁Tru": 5137,
      "▁Tex": 5138,
      "um,": 5139,
      "▁höch": 5140,
      "▁zuvor": 5141,
      "▁Stad": 5142,
      "iment": 5143,
      "▁aus,": 5144,
      "▁Erw": 5145,
      "00?\n": 5146,
      "teln": 5147,
      "leng": 5148,
      "gebie": 5149,
      "10?\n": 5150,
      "aille": 5151,
      "▁Reichs": 5152,
      "▁würde": 5153,
      "gl": 5154,
      "mil": 5155,
      "wirk": 5156,
      "▁]": 5157,
      "ino": 5158,
      "ieß": 5159,
      "▁bu": 5160,
      "▁21.": 5161,
      "▁hö": 5162,
      "▁go": 5163,
      "iell": 5164,
      "▁rem": 5165,
      "▁Defin": 5166,
      "apan": 5167,
      "gebung": 5168,
      "ify": 5169,
      "ferenz": 5170,
      "demie": 5171,
      "▁prom": 5172,
      "▁einzel": 5173,
      "▁lässt": 5174,
      "33": 5175,
      "66": 5176,
      "ML": 5177,
      "gn": 5178,
      "▁tem": 5179,
      "eint": 5180,
      "isierung": 5181,
      "▁False": 5182,
      "▁=\n": 5183,
      "entlichen": 5184,
      "osoph": 5185,
      "▁hat.": 5186,
      "ference": 5187,
      "▁wurden.": 5188,
      "▁1989": 5189,
      "▁erfolgreich": 5190,
      "37": 5191,
      "8,": 5192,
      "fo": 5193,
      "▁--------------------------------": 5194,
      "ener": 5195,
      "▁Sen": 5196,
      "▁Soc": 5197,
      "itor": 5198,
      "ating": 5199,
      "▁Mer": 5200,
      "▁(O": 5201,
      "▁(t": 5202,
      "▁Rang": 5203,
      "▁Tour": 5204,
      "▁Carl": 5205,
      "▁pol": 5206,
      "▁School": 5207,
      "▁jüd": 5208,
      "▁64": 5209,
      "▁funktion": 5210,
      "▁See": 5211,
      "ymbol": 5212,
      "length": 5213,
      "Hello": 5214,
      "do": 5215,
      "any": 5216,
      "▁Gut": 5217,
      "▁ermöglich": 5218,
      "▁Länge": 5219,
      "denk": 5220,
      "▁Start": 5221,
      "▁Schutz": 5222,
      "▁they": 5223,
      "ategor": 5224,
      "gebaut": 5225,
      "▁yes\n": 5226,
      "gesetzt": 5227,
      "▁Mac": 5228,
      "▁folgende": 5229,
      "econd": 5230,
      "▁separ": 5231,
      "▁PSF": 5232,
      "kunft": 5233,
      "atal": 5234,
      "us,": 5235,
      "▁zeigt": 5236,
      "▁ter": 5237,
      "▁verlor": 5238,
      "istische": 5239,
      "▁Intern": 5240,
      "▁Spitz": 5241,
      "▁Gef": 5242,
      "folgt": 5243,
      "▁jedes": 5244,
      "State": 5245,
      "gangen": 5246,
      "ündete": 5247,
      "ENT": 5248,
      "▁verkauf": 5249,
      "▁Russland": 5250,
      "].": 5251,
      "com": 5252,
      "▁sign": 5253,
      "iti": 5254,
      "▁14\n": 5255,
      "gest": 5256,
      "▁Trans": 5257,
      "▁Lond": 5258,
      "▁No": 5259,
      "apel": 5260,
      "▁Nachfolger": 5261,
      "▁Dieses": 5262,
      "▁Variable": 5263,
      "▁Bedeutung": 5264,
      "fassen": 5265,
      "haupt": 5266,
      "iegel": 5267,
      "olum": 5268,
      "ract": 5269,
      "▁zudem": 5270,
      "▁europ": 5271,
      "▁Erfolg": 5272,
      "▁5,": 5273,
      "ograph": 5274,
      "izin": 5275,
      "stellen,": 5276,
      "19\n": 5277,
      "bare": 5278,
      "hausen": 5279,
      "▁Eltern": 5280,
      "meisterschaft": 5281,
      "gehend": 5282,
      "reibung": 5283,
      "▁wichtig": 5284,
      "▁Professor": 5285,
      "_ptr": 5286,
      "ps": 5287,
      "staat": 5288,
      "▁access": 5289,
      "orge": 5290,
      "schw": 5291,
      "▁co": 5292,
      "▁collection": 5293,
      "ationale": 5294,
      "allel": 5295,
      "immt": 5296,
      "▁Maria": 5297,
      "▁Selbst": 5298,
      "ymnasium": 5299,
      "-,": 5300,
      "22": 5301,
      "2}{": 5302,
      "ST": 5303,
      "bel": 5304,
      "fil": 5305,
      "wissenschaft": 5306,
      "teten": 5307,
      "▁moder": 5308,
      "umm": 5309,
      "▁\"s": 5310,
      "reif": 5311,
      "▁verlie": 5312,
      "sen.": 5313,
      "sprach": 5314,
      "acc": 5315,
      "▁früher": 5316,
      "▁Straßen": 5317,
      "AI": 5318,
      "gro": 5319,
      "hang": 5320,
      "iber": 5321,
      "mund": 5322,
      "▁item": 5323,
      "▁Rhein": 5324,
      "rauch": 5325,
      "rachte": 5326,
      "▁19\n": 5327,
      "abe": 5328,
      "▁Verfüg": 5329,
      "ruktur": 5330,
      "halten.": 5331,
      "▁Exp": 5332,
      "▁damals": 5333,
      "▁Politik": 5334,
      "▁Norden": 5335,
      "volution": 5336,
      "▁setzte": 5337,
      "▁following": 5338,
      "L,": 5339,
      "▁Set": 5340,
      "▁Mont": 5341,
      "uman": 5342,
      "▁Lage": 5343,
      "▁Hei": 5344,
      "▁Haf": 5345,
      "ometh": 5346,
      "▁Nä": 5347,
      "▁Argument": 5348,
      "▁darüber": 5349,
      "▁Fluss": 5350,
      "▁vielen": 5351,
      "(1": 5352,
      "ügen": 5353,
      "▁Aber": 5354,
      "▁Rund": 5355,
      "▁Jak": 5356,
      "▁pattern": 5357,
      "▁Landkreis": 5358,
      "formation": 5359,
      "▁selben": 5360,
      "▁Minister": 5361,
      "▁kleinen": 5362,
      "▁Danach": 5363,
      "▁Bahnhof": 5364,
      "▁Methode": 5365,
      "yle": 5366,
      "▁Sin": 5367,
      "▁kur": 5368,
      "▁sieben": 5369,
      "▁Arg": 5370,
      "ension": 5371,
      "▁folgte": 5372,
      "▁Ortst": 5373,
      "▁Westen": 5374,
      "▁Schlüssel": 5375,
      "▁Willi": 5376,
      "CT": 5377,
      "best": 5378,
      "nd": 5379,
      "number": 5380,
      "▁Dres": 5381,
      "▁Po": 5382,
      "▁Java": 5383,
      "ertig": 5384,
      "\",\n": 5385,
      "▁italien": 5386,
      "ynam": 5387,
      "▁Dokument": 5388,
      "▁Herzog": 5389,
      "[]": 5390,
      "face": 5391,
      "gruppe": 5392,
      "ham": 5393,
      "ms": 5394,
      "ox": 5395,
      "▁1:": 5396,
      "▁Wel": 5397,
      "▁erb": 5398,
      "▁Can": 5399,
      "licht": 5400,
      "see": 5401,
      "▁\"L": 5402,
      "▁3)": 5403,
      "annt.": 5404,
      "imes": 5405,
      "ordnung": 5406,
      "ource": 5407,
      "▁organis": 5408,
      "▁besser": 5409,
      "struktur": 5410,
      "](http://": 5411,
      "▁Zeichen": 5412,
      "▁keinen": 5413,
      "▁wenig": 5414,
      ".j": 5415,
      "35": 5416,
      "ae": 5417,
      "bark": 5418,
      "weit": 5419,
      "▁,": 5420,
      "▁ende": 5421,
      "▁Bischof": 5422,
      "▁ein,": 5423,
      "▁main": 5424,
      "▁Ep": 5425,
      "ter,": 5426,
      "▁(17": 5427,
      "▁Wort": 5428,
      "▁mittel": 5429,
      "▁Städ": 5430,
      "▁31.": 5431,
      "adurch": 5432,
      "▁Anschließend": 5433,
      "pty": 5434,
      "obil": 5435,
      "gesellschaft": 5436,
      "▁func": 5437,
      "▁module": 5438,
      "▁elements": 5439,
      "7,": 5440,
      "üge": 5441,
      "inge": 5442,
      "▁Syn": 5443,
      "▁bein": 5444,
      "▁Kauf": 5445,
      "▁Gi": 5446,
      "▁glob": 5447,
      "▁Verw": 5448,
      "ics": 5449,
      "▁bisher": 5450,
      "öße": 5451,
      "▁finanz": 5452,
      "▁standard": 5453,
      "▁Halb": 5454,
      "code": 5455,
      "▁§": 5456,
      "▁av": 5457,
      "▁supp": 5458,
      "▁ident": 5459,
      "usst": 5460,
      "▁Mc": 5461,
      "▁Krit": 5462,
      "▁24.": 5463,
      "▁Ged": 5464,
      "▁Journ": 5465,
      "▁Amts": 5466,
      "▁Prem": 5467,
      "▁23.": 5468,
      "bruch": 5469,
      "▁22.": 5470,
      "▁comment": 5471,
      "▁stellte": 5472,
      "▁Italien": 5473,
      "▁Richard": 5474,
      "▁Eichhorn": 5475,
      "▁Bruder": 5476,
      "26": 5477,
      "RO": 5478,
      "isc": 5479,
      "▁there": 5480,
      "emory": 5481,
      "▁Winter": 5482,
      "▁Log": 5483,
      "▁Jer": 5484,
      "▁Spiele": 5485,
      "gebäude": 5486,
      "▁sogen": 5487,
      "▁12x": 5488,
      "▁13\n": 5489,
      "▁2025": 5490,
      "▁Gesellschaft": 5491,
      "▁Stein": 5492,
      "▁26.": 5493,
      "ählen": 5494,
      "▁weiß": 5495,
      "Value": 5496,
      "▁kehrte": 5497,
      "▁sogar": 5498,
      "di": 5499,
      "uster": 5500,
      "itten": 5501,
      "▁Bot": 5502,
      "▁(x": 5503,
      "▁Hann": 5504,
      "▁Val": 5505,
      "▁denn": 5506,
      "▁\"I": 5507,
      "load": 5508,
      "ague": 5509,
      "verkehr": 5510,
      "▁17\n": 5511,
      "arbei": 5512,
      "▁Heraus": 5513,
      "geschichte": 5514,
      "ttrib": 5515,
      "geben.": 5516,
      "▁können.": 5517,
      "verband": 5518,
      "▁zahlreiche": 5519,
      "MP": 5520,
      "kel": 5521,
      "sburg": 5522,
      "▁message": 5523,
      "▁(V": 5524,
      "▁allow": 5525,
      "▁lag": 5526,
      "▁length": 5527,
      "aupts": 5528,
      "▁Schild": 5529,
      "▁Anton": 5530,
      "rick": 5531,
      "0000": 5532,
      "stellungen": 5533,
      "▁Plan": 5534,
      "▁zurück.": 5535,
      "▁welches": 5536,
      "▁besuchte": 5537,
      "70?\n": 5538,
      "pos": 5539,
      "wür": 5540,
      "▁Außen": 5541,
      "▁Dist": 5542,
      "▁map": 5543,
      "▁mark": 5544,
      "▁Klassen": 5545,
      "▁ph": 5546,
      "▁implement": 5547,
      "ima": 5548,
      "▁65": 5549,
      "räger": 5550,
      "self": 5551,
      "▁keyword": 5552,
      "die": 5553,
      "ear": 5554,
      "för": 5555,
      "äu": 5556,
      "▁^": 5557,
      "▁q": 5558,
      "▁seh": 5559,
      "▁Brit": 5560,
      "legt": 5561,
      "▁2x": 5562,
      "▁Wider": 5563,
      "ierenden": 5564,
      "sehen": 5565,
      "▁require": 5566,
      "ograf": 5567,
      "▁vorher": 5568,
      "spieler": 5569,
      "▁1988": 5570,
      "▁Gesetz": 5571,
      "ologischen": 5572,
      "▁ausgezeichnet": 5573,
      "▁sollten": 5574,
      "▁Gebie": 5575,
      "▁world": 5576,
      "▁Archiv": 5577,
      "▁veröffentlichte": 5578,
      "▁Joseph": 5579,
      "▁nördlich": 5580,
      "▁heutigen": 5581,
      "▁Richtung": 5582,
      "▁Süden": 5583,
      "(c": 5584,
      "2}": 5585,
      "30?\n": 5586,
      "CH": 5587,
      "not": 5588,
      "nitz": 5589,
      "system": 5590,
      "tler": 5591,
      "xy": 5592,
      "öh": 5593,
      "▁ag": 5594,
      "▁Song": 5595,
      "▁where": 5596,
      "▁wissenschaft": 5597,
      "ales": 5598,
      "▁2)": 5599,
      "▁Punkt": 5600,
      "▁Get": 5601,
      "▁Gruppen": 5602,
      "▁Tür": 5603,
      "▁Lang": 5604,
      "▁\"P": 5605,
      "▁sein.": 5606,
      "▁werde": 5607,
      "akes": 5608,
      "▁178": 5609,
      "▁1991": 5610,
      "▁liefert": 5611,
      "▁finden": 5612,
      "▁gleichen": 5613,
      "▁Studien": 5614,
      "▁weniger": 5615,
      "▁Männer": 5616,
      "▁möchte": 5617,
      ".s": 5618,
      "Object": 5619,
      "back": 5620,
      "ux": 5621,
      "statt": 5622,
      "tet.\n": 5623,
      "▁bl": 5624,
      "▁Beh": 5625,
      "▁Kind": 5626,
      "▁Hall": 5627,
      "▁Hinter": 5628,
      "▁Cont": 5629,
      "ington": 5630,
      "▁Ott": 5631,
      "▁aus.\n": 5632,
      "▁Rec": 5633,
      "riech": 5634,
      "▁Sek": 5635,
      "▁zwar": 5636,
      "▁mehreren": 5637,
      "forsch": 5638,
      "12}": 5639,
      "▁können,": 5640,
      "▁Hamburg": 5641,
      "▁Sowjet": 5642,
      ".0": 5643,
      "fläche": 5644,
      "▁check": 5645,
      "▁system": 5646,
      "▁Men": 5647,
      "▁Fir": 5648,
      "ratete": 5649,
      "▁Com": 5650,
      "rigen": 5651,
      "▁Zust": 5652,
      "ed\n": 5653,
      "läss": 5654,
      "mente": 5655,
      "▁$t": 5656,
      "▁without": 5657,
      "tragen": 5658,
      "▁gewor": 5659,
      "▁Finanz": 5660,
      "mäßig": 5661,
      "▁install": 5662,
      "▁französischen": 5663,
      "▁Andre": 5664,
      "ivalent": 5665,
      "▁assign": 5666,
      "▁)": 5667,
      "▁right": 5668,
      "erent": 5669,
      "▁Such": 5670,
      "▁Aust": 5671,
      "▁(a": 5672,
      "▁(St": 5673,
      "▁eff": 5674,
      "sprache": 5675,
      "▁1997": 5676,
      "ween": 5677,
      "azz": 5678,
      "▁einzige": 5679,
      "▁27.": 5680,
      "▁statt.": 5681,
      "▁Medien": 5682,
      "▁offiz": 5683,
      "▁erzielte": 5684,
      "▁std::": 5685,
      "omething": 5686,
      "75\n": 5687,
      "80?\n": 5688,
      "aid": 5689,
      "renn": 5690,
      "zogen": 5691,
      "stag": 5692,
      "▁Bed": 5693,
      "▁mor": 5694,
      "▁Ka": 5695,
      "read": 5696,
      "ierter": 5697,
      "▁last": 5698,
      "▁Recht": 5699,
      "▁deut": 5700,
      "▁nachdem": 5701,
      "bek": 5702,
      "▁9x": 5703,
      "▁1992": 5704,
      "▁13x": 5705,
      "ourc": 5706,
      "▁neun": 5707,
      "▁Vereinigten": 5708,
      "▁Roman": 5709,
      "▁Staffel": 5710,
      "▁Console.": 5711,
      "a\n": 5712,
      "no": 5713,
      "sdorf": 5714,
      "ösen": 5715,
      "chen,": 5716,
      "aren": 5717,
      "▁Dis": 5718,
      "▁Drei": 5719,
      "▁zentr": 5720,
      "▁zerstör": 5721,
      "omen": 5722,
      "▁Vort": 5723,
      "achten": 5724,
      "▁Cal": 5725,
      "▁Auftrag": 5726,
      "▁11x": 5727,
      "▁1974": 5728,
      "▁bereit": 5729,
      "▁Spielen": 5730,
      "▁Entscheid": 5731,
      "▁Christian": 5732,
      "▁entsprechen": 5733,
      "cause": 5734,
      "fung": 5735,
      "krä": 5736,
      "lic": 5737,
      "over": 5738,
      "wissen": 5739,
      "union": 5740,
      "▁second": 5741,
      "▁Karriere": 5742,
      "▁Ihnen": 5743,
      "▁Colle": 5744,
      "▁la": 5745,
      "▁Strecke": 5746,
      "▁aufgenommen": 5747,
      "▁7x": 5748,
      "geln": 5749,
      "▁Institut": 5750,
      "▁Verbindung": 5751,
      "▁Literatur": 5752,
      "64\n": 5753,
      "AB": 5754,
      "d.": 5755,
      "fre": 5756,
      "fred": 5757,
      "iden": 5758,
      "nam": 5759,
      "zub": 5760,
      "ero": 5761,
      "▁Bro": 5762,
      "le,": 5763,
      "leben": 5764,
      "▁Har": 5765,
      "iellen": 5766,
      "▁stehen": 5767,
      "▁4x": 5768,
      "▁Erd": 5769,
      "lät": 5770,
      "auftrag": 5771,
      "baren": 5772,
      "▁1979": 5773,
      "gehö": 5774,
      "▁engl": 5775,
      "25\n": 5776,
      "3}": 5777,
      "4}{": 5778,
      "40?\n": 5779,
      "Line": 5780,
      "gten": 5781,
      "pack": 5782,
      "s(": 5783,
      "wik": 5784,
      "▁1)": 5785,
      "▁now": 5786,
      "▁erg": 5787,
      "▁Sieg": 5788,
      "▁+=": 5789,
      "ärk": 5790,
      "▁valu": 5791,
      "flug": 5792,
      "▁zurückge": 5793,
      "▁print(\"": 5794,
      "▁gehören": 5795,
      "▁Boden": 5796,
      "▁Europa": 5797,
      "▁false\n": 5798,
      "▁Charakter": 5799,
      "▁besonders": 5800,
      "▁Nähe": 5801,
      "')": 5802,
      "29": 5803,
      "45": 5804,
      "60?\n": 5805,
      "date": 5806,
      "eben": 5807,
      "fan": 5808,
      "file": 5809,
      "gut": 5810,
      "tin": 5811,
      "strecke": 5812,
      "orben": 5813,
      "urm": 5814,
      "▁include": 5815,
      "▁fiel": 5816,
      "▁field": 5817,
      "▁Körper": 5818,
      "▁nam": 5819,
      "▁Pil": 5820,
      "schrif": 5821,
      "racht": 5822,
      "ilde": 5823,
      "▁Nutz": 5824,
      "▁gek": 5825,
      "▁ca.": 5826,
      "▁count": 5827,
      "▁Ander": 5828,
      "ien.": 5829,
      "00\n": 5830,
      "▁amer": 5831,
      "▁10x": 5832,
      "▁propert": 5833,
      "▁weiterhin": 5834,
      "▁genau": 5835,
      "-Ar": 5836,
      "▁Arbeiten": 5837,
      "▁Roy": 5838,
      "▁benöt": 5839,
      "▁Modell": 5840,
      "▁Flughafen": 5841,
      "28": 5842,
      "bug": 5843,
      "fäh": 5844,
      "seite": 5845,
      "voll": 5846,
      "unc": 5847,
      "▁age": 5848,
      "▁size": 5849,
      "▁mut": 5850,
      "ama": 5851,
      "▁Wissen": 5852,
      "▁JS": 5853,
      "▁Star": 5854,
      "stens": 5855,
      "▁ihres": 5856,
      "▁[1": 5857,
      "),\n": 5858,
      "▁learn": 5859,
      "▁Ausdruck": 5860,
      "▁produz": 5861,
      "▁Schlacht": 5862,
      "vector": 5863,
      "▁defined": 5864,
      "▁empf": 5865,
      "hree": 5866,
      "▁Olymp": 5867,
      "cy": 5868,
      "mo": 5869,
      "in.": 5870,
      "index": 5871,
      "▁Sam": 5872,
      "▁Sant": 5873,
      "▁Satz": 5874,
      "▁intern": 5875,
      "▁May": 5876,
      "▁Militär": 5877,
      "▁norm": 5878,
      "▁Geist": 5879,
      "ckel": 5880,
      "▁kathol": 5881,
      "▁Spez": 5882,
      "ücken": 5883,
      "quare": 5884,
      "ollar": 5885,
      "frage": 5886,
      "▁haben.": 5887,
      "▁Regie": 5888,
      "▁jede": 5889,
      "▁machte": 5890,
      "wasser": 5891,
      "▁bietet": 5892,
      "▁ursprünglich": 5893,
      "▁Leipzig": 5894,
      "witch": 5895,
      "fort": 5896,
      "▁techn": 5897,
      "eir": 5898,
      "▁Ach": 5899,
      "▁initial": 5900,
      "▁Fel": 5901,
      "▁()": 5902,
      "▁alles": 5903,
      "▁Stimmen": 5904,
      "▁3x": 5905,
      "ican": 5906,
      "iens": 5907,
      "ers,": 5908,
      "etzung": 5909,
      "izier": 5910,
      "▁8x": 5911,
      "▁sour": 5912,
      "ounter": 5913,
      "treter": 5914,
      "hread": 5915,
      "▁gemeins": 5916,
      "scheiden": 5917,
      "bezirk": 5918,
      "▁London": 5919,
      "4}": 5920,
      "9}": 5921,
      "])\n": 5922,
      "fest": 5923,
      "lös": 5924,
      "mot": 5925,
      "n't": 5926,
      "wise": 5927,
      "–20": 5928,
      "▁div": 5929,
      "on't": 5930,
      "▁way": 5931,
      "isiert": 5932,
      "▁Wirk": 5933,
      "▁put": 5934,
      "▁beh": 5935,
      "▁//////////////////////////////////": 5936,
      "▁evalu": 5937,
      "▁leben": 5938,
      "▁Mitarbeiter": 5939,
      "▁1996": 5940,
      "ia,": 5941,
      "▁1960": 5942,
      "ideo": 5943,
      "▁beleg": 5944,
      "▁britischen": 5945,
      "▁Bevölkerung": 5946,
      "lua_": 5947,
      "7}": 5948,
      "AG": 5949,
      "d,": 5950,
      "doc": 5951,
      "rim": 5952,
      "üter": 5953,
      "▁́": 5954,
      "ants": 5955,
      "ors": 5956,
      "▁Doppel": 5957,
      "▁Tran": 5958,
      "eting": 5959,
      "cke": 5960,
      "▁copy": 5961,
      "▁#################################": 5962,
      "▁Erfahr": 5963,
      "osh": 5964,
      "▁<=": 5965,
      "▁Zudem": 5966,
      "▁Sozial": 5967,
      "dress": 5968,
      "▁Basis": 5969,
      "▁Operator": 5970,
      "▁Australien": 5971,
      "90?\n": 5972,
      "PT": 5973,
      "s)\n": 5974,
      "wehr": 5975,
      "al\n": 5976,
      "▁bit": 5977,
      "▁militär": 5978,
      "▁top": 5979,
      "▁Rein": 5980,
      "▁erster": 5981,
      "▁gro": 5982,
      "▁Zimmer": 5983,
      "angs": 5984,
      "liefer": 5985,
      "new": 5986,
      "ples": 5987,
      "▁Gemeinden": 5988,
      "▁gebor": 5989,
      "▁Bauern": 5990,
      "▁Mitglieder": 5991,
      "▁genannt": 5992,
      "▁multiple": 5993,
      "▁nächsten": 5994,
      "▁Ortsteil": 5995,
      "56": 5996,
      "FT": 5997,
      "IL": 5998,
      "beding": 5999,
      "din": 6000,
      "tr": 6001,
      "uple": 6002,
      "ures": 6003,
      "▁bau": 6004,
      "ichtet": 6005,
      "▁Leitung": 6006,
      "▁Nik": 6007,
      "▁another": 6008,
      "▁Schreiben": 6009,
      "rief": 6010,
      "▁programm": 6011,
      "10}": 6012,
      "▁kannst": 6013,
      "führer": 6014,
      "▁Adel": 6015,
      "▁define": 6016,
      "haltung": 6017,
      "▁29.": 6018,
      "isplay": 6019,
      "▁kleine": 6020,
      "▁private": 6021,
      "barkeit": 6022,
      "1:": 6023,
      "Of": 6024,
      "mm": 6025,
      "ergie": 6026,
      "▁wri": 6027,
      "igit": 6028,
      "▁zeig": 6029,
      "ley": 6030,
      "▁fr": 6031,
      "▁try": 6032,
      "▁time": 6033,
      "▁namens": 6034,
      "▁2:": 6035,
      "▁verantwort": 6036,
      "▁Staaten": 6037,
      "▁Schn": 6038,
      "▁Verkehr": 6039,
      "pile": 6040,
      "▁schl": 6041,
      "▁Beweg": 6042,
      "▁vor.": 6043,
      "▁League": 6044,
      "▁1984": 6045,
      "zehn": 6046,
      "outh": 6047,
      "▁double": 6048,
      "13}": 6049,
      "haft": 6050,
      "itäts": 6051,
      "▁Mathemat": 6052,
      "▁Möglichkeit": 6053,
      "büt": 6054,
      "eff": 6055,
      "gliche": 6056,
      "han": 6057,
      "mark": 6058,
      "pass": 6059,
      "pla": 6060,
      "▁│": 6061,
      "itution": 6062,
      "▁vector": 6063,
      "uren": 6064,
      "▁eingesetz": 6065,
      "▁mon": 6066,
      "▁Kü": 6067,
      "▁Preis": 6068,
      "schuss": 6069,
      "▁point": 6070,
      "▁liter": 6071,
      "▁str": 6072,
      "▁Speicher": 6073,
      "▁Arme": 6074,
      "▁enthält": 6075,
      "cept": 6076,
      "ape": 6077,
      "gelöst": 6078,
      "ätigkeit": 6079,
      "▁125": 6080,
      "▁1993": 6081,
      "älfte": 6082,
      "▁Brem": 6083,
      "▁folgt": 6084,
      "▁damal": 6085,
      ";;;;;;;;;;;;;;;;;;;;;;;;;;;;;;;;": 6086,
      "▁vollständig": 6087,
      "39": 6088,
      "a.\n": 6089,
      "class": 6090,
      "wald": 6091,
      "öpf": 6092,
      "▁dritten": 6093,
      "▁Sem": 6094,
      "tegr": 6095,
      "▁AG": 6096,
      "▁wes": 6097,
      "▁Baum": 6098,
      "▁tro": 6099,
      "▁national": 6100,
      "rachen": 6101,
      "------------": 6102,
      "▁6x": 6103,
      "▁Beruf": 6104,
      "▁Beim": 6105,
      "ologische": 6106,
      "▁what": 6107,
      "▁größten": 6108,
      "▁Hotel": 6109,
      "rateg": 6110,
      "▁heiratete": 6111,
      "anstalt": 6112,
      "g.": 6113,
      "uhr": 6114,
      "▁del": 6115,
      "▁Syntax": 6116,
      "iten": 6117,
      "is,": 6118,
      "▁med": 6119,
      "▁table": 6120,
      "▁(m": 6121,
      "▁erforder": 6122,
      "▁Hen": 6123,
      "▁our": 6124,
      "▁position": 6125,
      "irg": 6126,
      "ienste": 6127,
      "▁übern": 6128,
      "▁15x": 6129,
      "plan": 6130,
      "führt.": 6131,
      "▁1980": 6132,
      "▁1975": 6133,
      "berg,": 6134,
      "▁wohl": 6135,
      "▁geboren": 6136,
      "▁teilweise": 6137,
      "11}": 6138,
      "▁Wirtschafts": 6139,
      "␤»\n": 6140,
      "78": 6141,
      "c.": 6142,
      "kan": 6143,
      "öhn": 6144,
      "onym": 6145,
      "▁Block": 6146,
      "ema": 6147,
      "▁Kurz": 6148,
      "▁Top": 6149,
      "uth": 6150,
      "▁lib": 6151,
      "▁version": 6152,
      "▁Invest": 6153,
      "▁Span": 6154,
      "▁order": 6155,
      "▁Ihrer": 6156,
      "▁besteh": 6157,
      "▁konnten": 6158,
      "nehm": 6159,
      "▁Ernst": 6160,
      "▁Frankfurt": 6161,
      "▁Verwaltungs": 6162,
      "▁writeln": 6163,
      "bü": 6164,
      "iat": 6165,
      "nt": 6166,
      "▁somit": 6167,
      "▁Förder": 6168,
      "▁pos": 6169,
      "▁verz": 6170,
      "▁and\n": 6171,
      "gericht": 6172,
      "▁Arten": 6173,
      "gress": 6174,
      "▁<!": 6175,
      "▁cons": 6176,
      "▁1.0": 6177,
      "fore": 6178,
      "▁Serie": 6179,
      "▁Polizei": 6180,
      "wiegend": 6181,
      "▁Album": 6182,
      "▁bedeuten": 6183,
      "▁Victor": 6184,
      "▁Martin": 6185,
      "förm": 6186,
      "';\n": 6187,
      "48": 6188,
      "True": 6189,
      "gem": 6190,
      "▁zähl": 6191,
      "▁tun": 6192,
      "▁Kron": 6193,
      "▁Run": 6194,
      "▁Wahr": 6195,
      "rael": 6196,
      "▁Cre": 6197,
      "▁krit": 6198,
      "abil": 6199,
      "reibt": 6200,
      "▁verfü": 6201,
      "▁besten": 6202,
      "au,": 6203,
      "▁42\n": 6204,
      "▁war.\n": 6205,
      "▁Ersten": 6206,
      "beg": 6207,
      "▁Nachbar": 6208,
      "ified": 6209,
      "▁Lös": 6210,
      "▁program": 6211,
      "linie": 6212,
      "▁1970": 6213,
      "▁Untersuch": 6214,
      "▁between": 6215,
      "liga": 6216,
      "▁filename": 6217,
      "▁Element": 6218,
      "▁Methoden": 6219,
      "wärts": 6220,
      "▁Museum": 6221,
      "▁Turnier": 6222,
      ".000": 6223,
      "Er": 6224,
      "UL": 6225,
      "i\n": 6226,
      "keits": 6227,
      "preis": 6228,
      "zy": 6229,
      "▁dest": 6230,
      "esser": 6231,
      "▁sah": 6232,
      "▁van": 6233,
      "▁break": 6234,
      "▁Bor": 6235,
      "▁math": 6236,
      "▁Mein": 6237,
      "▁Fäh": 6238,
      "▁Rud": 6239,
      "▁Hund": 6240,
      "achst": 6241,
      "ing.": 6242,
      "▁ged": 6243,
      "▁nichts": 6244,
      "halten,": 6245,
      "frau": 6246,
      "▁14x": 6247,
      "▁Steuer": 6248,
      "spricht": 6249,
      "▁/*\n": 6250,
      "▁befand": 6251,
      "uerei": 6252,
      "▁Ergebnisse": 6253,
      "▁THE": 6254,
      "(s": 6255,
      "ns": 6256,
      "pon": 6257,
      "▁want": 6258,
      "▁Bal": 6259,
      "▁Ra": 6260,
      "▁Tage": 6261,
      "irks": 6262,
      "▁ans": 6263,
      "▁anges": 6264,
      "▁verhei": 6265,
      "▁50.": 6266,
      "▁to\n": 6267,
      "▁0;\n": 6268,
      "▁Einfluss": 6269,
      "atein": 6270,
      "}{10}": 6271,
      "▁kann,": 6272,
      "▁kann.": 6273,
      "organ": 6274,
      "15}": 6275,
      "immung": 6276,
      "▁1938": 6277,
      "14}": 6278,
      "▁contrib": 6279,
      "▁Darüber": 6280,
      "ozial": 6281,
      "println": 6282,
      "ologe": 6283,
      "▁Kloster": 6284,
      "8}": 6285,
      "94\n": 6286,
      "TE": 6287,
      "ios": 6288,
      "kra": 6289,
      "kap": 6290,
      "mb": 6291,
      "s\"": 6292,
      "chron": 6293,
      "▁a\n": 6294,
      "▁außerdem": 6295,
      "▁welt": 6296,
      "al.": 6297,
      "▁bar": 6298,
      "▁Bud": 6299,
      "▁Frie": 6300,
      "▁There": 6301,
      "▁Vo": 6302,
      "▁ow": 6303,
      "▁anschließend": 6304,
      "abl": 6305,
      "▁verd": 6306,
      "▁Stift": 6307,
      "ündet": 6308,
      "ktionen": 6309,
      "▁Ausgabe": 6310,
      "▁zurück,": 6311,
      "▁späteren": 6312,
      "▁Chr.": 6313,
      "▁arguments": 6314,
      "▁Finale": 6315,
      "ways": 6316,
      "▁CDU": 6317,
      "6}": 6318,
      "mat": 6319,
      "pace": 6320,
      "wind": 6321,
      "wesen": 6322,
      "▁dist": 6323,
      "onist": 6324,
      "▁DDR": 6325,
      "▁Beding": 6326,
      "ungen.": 6327,
      "▁Kampf": 6328,
      "▁non": 6329,
      "▁Pfl": 6330,
      "ummer": 6331,
      "ierungen": 6332,
      "▁how": 6333,
      "▁Namens": 6334,
      "reite": 6335,
      "▁range": 6336,
      "▁Versuch": 6337,
      "▁Und": 6338,
      "last": 6339,
      "▁Prop": 6340,
      "hould": 6341,
      "▁113": 6342,
      "spielen": 6343,
      "▁geschrieben": 6344,
      "rechend": 6345,
      "▁Königs": 6346,
      "▁südlich": 6347,
      "scheinlich": 6348,
      "▁different": 6349,
      "▁source": 6350,
      "ually": 6351,
      "ines": 6352,
      "▁Sä": 6353,
      "atei": 6354,
      "asp": 6355,
      "▁inc": 6356,
      "▁Kategor": 6357,
      "▁Gö": 6358,
      "▁Teile": 6359,
      "▁Truppen": 6360,
      "▁Hälfte": 6361,
      "illa": 6362,
      "▁geben": 6363,
      "▁\"https://": 6364,
      "ation.\n": 6365,
      "▁56": 6366,
      "schaft.": 6367,
      "▁Bek": 6368,
      "▁durchge": 6369,
      "finale": 6370,
      "}{15}": 6371,
      "selben": 6372,
      "▁selten": 6373,
      "▁1949": 6374,
      "wagen": 6375,
      "▁Öff": 6376,
      "▁österreichischer": 6377,
      "lua_State": 6378,
      "(1,": 6379,
      "ET": 6380,
      "ced": 6381,
      "lern": 6382,
      "wurf": 6383,
      "zus": 6384,
      "▁Dom": 6385,
      "▁Bach": 6386,
      "▁einschließlich": 6387,
      "▁meine": 6388,
      "▁memory": 6389,
      "▁zie": 6390,
      "▁Mos": 6391,
      "▁(w": 6392,
      "▁Lü": 6393,
      "▁Les": 6394,
      "ierend": 6395,
      "▁Nr.": 6396,
      "▁Just": 6397,
      "▁po": 6398,
      "▁verein": 6399,
      "▁ever": 6400,
      "lächen": 6401,
      "▁jq": 6402,
      "▁ab,": 6403,
      "aku": 6404,
      "▁Aufruf": 6405,
      "▁Chem": 6406,
      "▁Landtag": 6407,
      "▁neuer": 6408,
      "ohlen": 6409,
      "clud": 6410,
      "▁gesp": 6411,
      "▁welcher": 6412,
      "▁Artikel": 6413,
      "▁Johannes": 6414,
      "forderungen": 6415,
      "▁verwenden,": 6416,
      "▁aktualis": 6417,
      "▁Thema": 6418,
      "▁Silber": 6419,
      "▁Köln": 6420,
      "92\n": 6421,
      "his": 6422,
      "leitung": 6423,
      "zess": 6424,
      "▁ung": 6425,
      "▁S.": 6426,
      "▁Sar": 6427,
      "ters": 6428,
      "▁(v": 6429,
      "▁Ton": 6430,
      "ump": 6431,
      "▁State": 6432,
      "###\n": 6433,
      "▁aufger": 6434,
      "▁5x": 6435,
      "▁Gebur": 6436,
      "▁1957": 6437,
      "▁would": 6438,
      "ingen,": 6439,
      "-Welt": 6440,
      "▁Besuch": 6441,
      "meisterschaften": 6442,
      "▁Reise": 6443,
      "▁Strings": 6444,
      "utorial": 6445,
      "▁Damit": 6446,
      "▁William": 6447,
      "▁JSON": 6448,
      "\"]": 6449,
      "-1": 6450,
      "27": 6451,
      "88\n": 6452,
      "kred": 6453,
      "ook": 6454,
      "wähl": 6455,
      "▁Sold": 6456,
      "▁Aktiv": 6457,
      "▁Dr": 6458,
      "▁Gar": 6459,
      "▁Länder": 6460,
      "▁North": 6461,
      "▁kont": 6462,
      "▁oben": 6463,
      "▁Zent": 6464,
      "ation.": 6465,
      "quenz": 6466,
      "geben,": 6467,
      "▁1972": 6468,
      "teilt": 6469,
      "▁1958": 6470,
      "▁gründete": 6471,
      "▁Industrie": 6472,
      "▁Än": 6473,
      "▁Weise": 6474,
      "▁Turm": 6475,
      "▁älter": 6476,
      "fassung": 6477,
      "▁Direktor": 6478,
      "DI": 6479,
      "gre": 6480,
      "ther": 6481,
      "erei": 6482,
      "▁act": 6483,
      "igen,": 6484,
      "▁Rem": 6485,
      "▁erweiter": 6486,
      "ream": 6487,
      "etho": 6488,
      "ierende": 6489,
      "▁City": 6490,
      "▁\"R": 6491,
      "▁Zeile": 6492,
      "▁Schritt": 6493,
      "opp": 6494,
      "▁Albert": 6495,
      "oci": 6496,
      "iversität": 6497,
      "▁1939": 6498,
      "▁gebaut": 6499,
      "▁>=": 6500,
      "▁befinden": 6501,
      "ativen": 6502,
      "▁handelt": 6503,
      "▁entstanden": 6504,
      "▁bestimmten": 6505,
      "ambda": 6506,
      "▁politischen": 6507,
      "▁Sicherheit": 6508,
      "▁Sowjetunion": 6509,
      "5}": 6510,
      "hes": 6511,
      "erweise": 6512,
      "ungsp": 6513,
      "▁Mat": 6514,
      "▁Pel": 6515,
      "▁Treff": 6516,
      "ots": 6517,
      "▁CO": 6518,
      "▁gestell": 6519,
      "▁psych": 6520,
      "▁Schließ": 6521,
      "▁Vergleich": 6522,
      "▁ref": 6523,
      "▁regel": 6524,
      "▁umfassen": 6525,
      "ized": 6526,
      "▁Ord": 6527,
      "▁1987": 6528,
      "▁1968": 6529,
      "▁1959": 6530,
      "ship": 6531,
      "▁III.": 6532,
      "▁Philipp": 6533,
      "betrieb": 6534,
      "jährigen": 6535,
      "▁Privat": 6536,
      "-de": 6537,
      "cul": 6538,
      "item": 6539,
      "klasse": 6540,
      "nungen": 6541,
      "rang": 6542,
      "t\n": 6543,
      "to": 6544,
      "win": 6545,
      "▁rei": 6546,
      "in\n": 6547,
      "▁Szen": 6548,
      "▁einger": 6549,
      "iler": 6550,
      "ilar": 6551,
      "▁height": 6552,
      "▁Option": 6553,
      "ella": 6554,
      "imit": 6555,
      "▁Verd": 6556,
      "▁evangel": 6557,
      "ico": 6558,
      "ago": 6559,
      "ündig": 6560,
      "▁jetzt": 6561,
      "▁'a": 6562,
      "▁Leop": 6563,
      "▁1982": 6564,
      "▁1986": 6565,
      "ächs": 6566,
      "▁bekannt,": 6567,
      "▁daraufhin": 6568,
      "▁Maschinen": 6569,
      "▁Olympischen": 6570,
      "!\"\n": 6571,
      "77": 6572,
      "d\n": 6573,
      "go": 6574,
      "rand": 6575,
      "▁Su": 6576,
      "▁Situ": 6577,
      "teste": 6578,
      "▁wäre": 6579,
      "▁Dach": 6580,
      "▁By": 6581,
      "▁beein": 6582,
      "▁because": 6583,
      "▁Uhr": 6584,
      "▁stack": 6585,
      "ags": 6586,
      "ope": 6587,
      "▁rest": 6588,
      "▁ledig": 6589,
      "ious": 6590,
      "▁Brü": 6591,
      "▁Stadtteil": 6592,
      "▁Deutsche": 6593,
      "▁Gesprä": 6594,
      "▁printf": 6595,
      "▁value\n": 6596,
      "▁Software": 6597,
      "▁luaL_": 6598,
      "▁Hilfe": 6599,
      "/0": 6600,
      "97": 6601,
      "fried": 6602,
      "häus": 6603,
      "ris": 6604,
      "▁d'": 6605,
      "stud": 6606,
      "▁after": 6607,
      "einen": 6608,
      "▁bem": 6609,
      "▁Kat": 6610,
      "▁Kraft": 6611,
      "▁Punk": 6612,
      "▁Gatt": 6613,
      "▁Tsch": 6614,
      "raw": 6615,
      "▁Note": 6616,
      "▁open": 6617,
      "▁\"J": 6618,
      "abs": 6619,
      "▁Stil": 6620,
      "▁55": 6621,
      "allen": 6622,
      "▁Abgeord": 6623,
      "ifier": 6624,
      "wegen": 6625,
      "zwischen": 6626,
      "▁ebenso": 6627,
      "▁könnte": 6628,
      "▁Volk": 6629,
      "rika": 6630,
      "klar": 6631,
      "▁Befehl": 6632,
      "▁spezif": 6633,
      "▁Streit": 6634,
      "alyse": 6635,
      "▁US-amerikanischer": 6636,
      "famil": 6637,
      "ior": 6638,
      "lam": 6639,
      "ric": 6640,
      "x,": 6641,
      "arf": 6642,
      "is.": 6643,
      "allo": 6644,
      "▁Mass": 6645,
      "▁fib": 6646,
      "▁Ehren": 6647,
      "▁Kal": 6648,
      "▁Runde": 6649,
      "▁Wes": 6650,
      "▁Wochen": 6651,
      "▁Lou": 6652,
      "eta": 6653,
      "▁\"f": 6654,
      "▁Struktur": 6655,
      "ada": 6656,
      "ript": 6657,
      "ers.": 6658,
      "▁jün": 6659,
      "▁Energie": 6660,
      "▁Ausbildung": 6661,
      "▁it's": 6662,
      "▁liegen": 6663,
      "▁1985": 6664,
      "▁many": 6665,
      "▁Regierungs": 6666,
      "▁jeden": 6667,
      "zep": 6668,
      "0.1": 6669,
      "▁Qualif": 6670,
      "gestellt.": 6671,
      "▁Zusammenarbeit": 6672,
      "▁ehemalige": 6673,
      "▁Motor": 6674,
      "▁höher": 6675,
      "▁Jakob": 6676,
      "47\n": 6677,
      "])": 6678,
      "_in": 6679,
      "ben,": 6680,
      "bed": 6681,
      "dessen": 6682,
      "latz": 6683,
      "äten": 6684,
      "stad": 6685,
      "▁Sachsen": 6686,
      "▁body": 6687,
      "tens": 6688,
      "▁Kranken": 6689,
      "▁(†": 6690,
      "▁Ritter": 6691,
      "scher": 6692,
      "umän": 6693,
      "omet": 6694,
      "▁kamen": 6695,
      "▁1920": 6696,
      "▁gez": 6697,
      "▁pack": 6698,
      "▁verfüg": 6699,
      "▁36\n": 6700,
      "▁Out": 6701,
      "agn": 6702,
      "▁sind.\n": 6703,
      "▁Bezeichnung": 6704,
      "▁Prot": 6705,
      "▁Bereits": 6706,
      "▁Gründung": 6707,
      "▁Konstru": 6708,
      "▁1963": 6709,
      "▁Zuge": 6710,
      "▁parent": 6711,
      "ything": 6712,
      "▁Komment": 6713,
      "zählung": 6714,
      "▁Zeichenkette": 6715,
      "▁lediglich": 6716,
      "DE": 6717,
      "UR": 6718,
      "[i": 6719,
      "ev": 6720,
      "ever": 6721,
      "onz": 6722,
      "aris": 6723,
      "▁ak": 6724,
      "▁symbol": 6725,
      "elt.": 6726,
      "▁Druck": 6727,
      "igi": 6728,
      "▁Post": 6729,
      "▁Wind": 6730,
      "▁\",": 6731,
      "eichen": 6732,
      "serie": 6733,
      "▁recht": 6734,
      "▁79": 6735,
      "▁vor,": 6736,
      "▁85": 6737,
      "▁Adam": 6738,
      "olitik": 6739,
      "▁geschlossen": 6740,
      "book": 6741,
      "▁Zusammenhang": 6742,
      "▁Elekt": 6743,
      "▁Erzb": 6744,
      "ground": 6745,
      "ko": 6746,
      "kampf": 6747,
      "anc": 6748,
      "itur": 6749,
      "▁bald": 6750,
      "▁integer": 6751,
      "▁Mission": 6752,
      "lech": 6753,
      "lecht": 6754,
      "▁tradition": 6755,
      "▁Kre": 6756,
      "▁Holl": 6757,
      "▁allein": 6758,
      "▁Zür": 6759,
      "▁Zusch": 6760,
      "▁Schön": 6761,
      "▁Schwe": 6762,
      "▁59": 6763,
      "lieben": 6764,
      "▁87": 6765,
      "▁Adels": 6766,
      "15.": 6767,
      "▁change": 6768,
      "▁erhiel": 6769,
      "▁Metern": 6770,
      "▁Josef": 6771,
      "▁poln": 6772,
      "▁<!--": 6773,
      "▁contributor": 6774,
      ".m": 6775,
      ":a": 6776,
      "cf": 6777,
      "hab": 6778,
      "ning": 6779,
      "sub": 6780,
      "iesen": 6781,
      "undes": 6782,
      "▁Mad": 6783,
      "▁Fot": 6784,
      "▁Ku": 6785,
      "ional": 6786,
      "schau": 6787,
      "schlä": 6788,
      "▁Tri": 6789,
      "▁Ther": 6790,
      "rax": 6791,
      "▁Hor": 6792,
      "irus": 6793,
      "▁Zus": 6794,
      "auern": 6795,
      "▁Verlag": 6796,
      "▁sieht": 6797,
      "stead": 6798,
      "ungsver": 6799,
      "▁their": 6800,
      "akte": 6801,
      "oken": 6802,
      "object": 6803,
      "▁175": 6804,
      "}{5}": 6805,
      "▁Main": 6806,
      "▁Adler": 6807,
      "weck": 6808,
      "▁Kirch": 6809,
      "-Reg": 6810,
      "▁Königreich": 6811,
      "▁qualif": 6812,
      "▁entwickelte": 6813,
      "▁instance": 6814,
      "▁simple": 6815,
      "▁Forschung": 6816,
      "▁erreicht": 6817,
      "▁County": 6818,
      "▁Eisenbahn": 6819,
      "!\"": 6820,
      "bung": 6821,
      "down": 6822,
      "fig": 6823,
      "ij": 6824,
      "komp": 6825,
      "ücht": 6826,
      "▁v.": 6827,
      "gehen": 6828,
      "▁most": 6829,
      "▁(z.": 6830,
      "ola": 6831,
      "▁Tre": 6832,
      "rak": 6833,
      "▁Lab": 6834,
      "gener": 6835,
      "▁Nicht": 6836,
      "▁zug": 6837,
      "abeth": 6838,
      "▁schreiben": 6839,
      "arbeitung": 6840,
      "▁wurden,": 6841,
      "spruch": 6842,
      "▁Berliner": 6843,
      "recken": 6844,
      "2.3": 6845,
      "================================": 6846,
      "▁Edward": 6847,
      "▁hohe": 6848,
      "▁hohen": 6849,
      "▁Problem": 6850,
      "▁äußer": 6851,
      "▁Benutzer": 6852,
      "▁Definition": 6853,
      "-w": 6854,
      ".\"\n": 6855,
      "36": 6856,
      "Id": 6857,
      "Pro": 6858,
      "ektor": 6859,
      "gers": 6860,
      "har": 6861,
      "mel": 6862,
      "ße": 6863,
      "▁should": 6864,
      "isierte": 6865,
      "as,": 6866,
      "▁die\n": 6867,
      "▁Bon": 6868,
      "▁Beit": 6869,
      "destens": 6870,
      "▁tre": 6871,
      "▁tim": 6872,
      "▁trans": 6873,
      "▁Kandid": 6874,
      "▁(auch": 6875,
      "▁James": 6876,
      "▁\"N": 6877,
      "reig": 6878,
      "▁verl": 6879,
      "▁vers": 6880,
      "▁auf.\n": 6881,
      "▁Schwer": 6882,
      "▁Innen": 6883,
      "▁Reaktion": 6884,
      "▁Republik": 6885,
      "ändig": 6886,
      "▁real": 6887,
      "ranch": 6888,
      "▁7^2": 6889,
      "halts": 6890,
      "räge": 6891,
      "ords": 6892,
      "▁153.": 6893,
      "▁r=7\n": 6894,
      "▁1976": 6895,
      "▁1943": 6896,
      "werke": 6897,
      "▁numbers": 6898,
      "▁promov": 6899,
      "▁Leopold": 6900,
      "▁153.94\n": 6901,
      "actor": 6902,
      "funktion": 6903,
      "kurr": 6904,
      "uel": 6905,
      "zt": 6906,
      "ächt": 6907,
      "▁reich": 6908,
      "orte": 6909,
      "▁buffer": 6910,
      "▁Del": 6911,
      "▁Kab": 6912,
      "▁neg": 6913,
      "▁Wal": 6914,
      "▁Wissenschaft": 6915,
      "▁Leiter": 6916,
      "▁Jazz": 6917,
      "▁land": 6918,
      "▁Schlag": 6919,
      "weisen": 6920,
      "ängen": 6921,
      "verwalt": 6922,
      "ehmer": 6923,
      "▁Später": 6924,
      "▁nicht,": 6925,
      "ternehmer": 6926,
      "-Sp": 6927,
      "stands": 6928,
      "▁1950": 6929,
      "▁Ihren": 6930,
      "▁see": 6931,
      "▁Type": 6932,
      "vention": 6933,
      "letzt": 6934,
      "▁Bezirk": 6935,
      "Set": 6936,
      "wechsel": 6937,
      "za": 6938,
      "ince": 6939,
      "anken": 6940,
      "▁Af": 6941,
      "▁Aka": 6942,
      "▁Doch": 6943,
      "▁ir": 6944,
      "▁Miss": 6945,
      "▁Eig": 6946,
      "▁Kern": 6947,
      "▁Ret": 6948,
      "▁Wol": 6949,
      "▁Tier": 6950,
      "ands": 6951,
      "▁HT": 6952,
      "berger": 6953,
      "▁kaum": 6954,
      "▁persön": 6955,
      "irc": 6956,
      "aust": 6957,
      "chester": 6958,
      "▁even": 6959,
      "▁unver": 6960,
      "änn": 6961,
      "opf": 6962,
      "▁0;": 6963,
      "▁enth": 6964,
      "ides": 6965,
      "räum": 6966,
      "▁Aufgrund": 6967,
      "▁1978": 6968,
      "▁können.\n": 6969,
      "ailable": 6970,
      "▁Parameter": 6971,
      "▁Modul": 6972,
      "▁möglicherweise": 6973,
      "fasste": 6974,
      "ständige": 6975,
      "▁Forschungs": 6976,
      "▁Obwohl": 6977,
      "▁arbeiten": 6978,
      "▁stammt": 6979,
      "▁built": 6980,
      "DP": 6981,
      "Write": 6982,
      "nach": 6983,
      "vice": 6984,
      "anlage": 6985,
      "▁Stern": 6986,
      "▁Super": 6987,
      "▁switch": 6988,
      "▁write": 6989,
      "▁Bil": 6990,
      "root": 6991,
      "▁Pet": 6992,
      "▁Ros": 6993,
      "▁Walter": 6994,
      "return": 6995,
      "entwicklung": 6996,
      "ht.": 6997,
      "▁port": 6998,
      "▁leicht": 6999,
      "adrat": 7000,
      "ausch": 7001,
      "range": 7002,
      "ommen,": 7003,
      "▁97": 7004,
      "▁Nacht": 7005,
      "ouv": 7006,
      "▁function\n": 7007,
      "▁1973": 7008,
      "▁Entwick": 7009,
      "▁Fragen": 7010,
      "▁Werke": 7011,
      "▁Handels": 7012,
      "▁machen": 7013,
      "▁look": 7014,
      "▁größte": 7015,
      "▁Englisch": 7016,
      "▁Gegensatz": 7017,
      "blick": 7018,
      "▁Salz": 7019,
      "▁Weitere": 7020,
      "▁Euro": 7021,
      "▁Verteidig": 7022,
      "▁width": 7023,
      "54\n": 7024,
      "bas": 7025,
      "fal": 7026,
      "lice": 7027,
      "oot": 7028,
      "tschaft": 7029,
      "z,": 7030,
      "unge": 7031,
      "▁Sand": 7032,
      "▁ser": 7033,
      "▁setzt": 7034,
      "el.": 7035,
      "▁Git": 7036,
      "and,": 7037,
      "▁zuerst": 7038,
      "▁lern": 7039,
      "▁//\n": 7040,
      "edia": 7041,
      "▁stieg": 7042,
      "▁Verhalten": 7043,
      "▁eher": 7044,
      "▁waren.": 7045,
      "erner": 7046,
      "▁rechts": 7047,
      "▁umfasst": 7048,
      "okal": 7049,
      "turm": 7050,
      "▁1983": 7051,
      "▁Konfl": 7052,
      "sidenten": 7053,
      "besser": 7054,
      "▁Urs": 7055,
      "hilfe": 7056,
      "▁ANY": 7057,
      "▁Alexander": 7058,
      "▁Denkmal": 7059,
      "({": 7060,
      "50?\n": 7061,
      "OS": 7062,
      "cur": 7063,
      "cond": 7064,
      "dung": 7065,
      "dam": 7066,
      "g,": 7067,
      "main": 7068,
      "▁Bad": 7069,
      "▁nimmt": 7070,
      "--\n": 7071,
      "lich.": 7072,
      "ikal": 7073,
      "sph": 7074,
      "▁wirk": 7075,
      "▁Union": 7076,
      "▁78.": 7077,
      "▁83": 7078,
      "land,": 7079,
      "▁conc": 7080,
      "▁Brze": 7081,
      "▁\t+": 7082,
      "▁Flor": 7083,
      "▁1940": 7084,
      "▁beträgt": 7085,
      "▁zunehmen": 7086,
      "drück": 7087,
      "▁empty": 7088,
      "▁frühen": 7089,
      "▁Luc": 7090,
      "▁Temperatur": 7091,
      "▁Drehbuch": 7092,
      "andenburg": 7093,
      ",5": 7094,
      "4)": 7095,
      "UN": 7096,
      "less": 7097,
      "mission": 7098,
      "o\n": 7099,
      "tritt": 7100,
      "onne": 7101,
      "▁window": 7102,
      "ality": 7103,
      "asst": 7104,
      "▁Dor": 7105,
      "▁Dr.": 7106,
      "▁EU": 7107,
      "▁Wettbewer": 7108,
      "▁cm": 7109,
      "▁\"K": 7110,
      "▁staat": 7111,
      "ulation": 7112,
      "▁-\n": 7113,
      "▁57": 7114,
      "▁500": 7115,
      "▁73": 7116,
      "▁[[": 7117,
      "▁Orgel": 7118,
      "▁zweit": 7119,
      "net.": 7120,
      "▁interess": 7121,
      "▁format": 7122,
      "▁mindestens": 7123,
      "%%%%%%%%": 7124,
      "▁compile": 7125,
      "▁Otto": 7126,
      "▁(Stand": 7127,
      "besch": 7128,
      "df": 7129,
      "sm": 7130,
      "view": 7131,
      "▁acc": 7132,
      "▁API": 7133,
      "▁wuchs": 7134,
      "▁Disk": 7135,
      "▁macht": 7136,
      "▁Mik": 7137,
      "▁Material": 7138,
      "lement": 7139,
      "▁24\n": 7140,
      "▁22\n": 7141,
      "▁(2": 7142,
      "▁Renn": 7143,
      "▁High": 7144,
      "▁Jed": 7145,
      "▁klass": 7146,
      "▁1919": 7147,
      "▁\"w": 7148,
      "▁verste": 7149,
      "▁Ze": 7150,
      "▁Erstellen": 7151,
      "▁Ann": 7152,
      "▁Angel": 7153,
      "▁Sie,": 7154,
      "ptim": 7155,
      "▁United": 7156,
      "▁Aller": 7157,
      "▁69": 7158,
      "ctionary": 7159,
      "▁10^2": 7160,
      "▁Abteilung": 7161,
      "▁Organ": 7162,
      "▁12^2": 7163,
      "zeichnis": 7164,
      "▁Gesund": 7165,
      "ingen.": 7166,
      "▁r=12\n": 7167,
      "▁Nordwest": 7168,
      "▁452.3": 7169,
      "▁belieb": 7170,
      "▁files": 7171,
      "▁Grenze": 7172,
      "▁Insgesamt": 7173,
      "mbH": 7174,
      "▁452.39\n": 7175,
      "')\n": 7176,
      "85": 7177,
      "EM": 7178,
      "▁östlich": 7179,
      "include": 7180,
      "▁Some": 7181,
      "ala": 7182,
      "geleg": 7183,
      "▁b\n": 7184,
      "asen": 7185,
      "▁Bibliothek": 7186,
      "rough": 7187,
      "▁V.": 7188,
      "▁kenn": 7189,
      "▁cl": 7190,
      "▁verlä": 7191,
      "▁Stutt": 7192,
      "agand": 7193,
      "erseits": 7194,
      "ünft": 7195,
      "▁[]": 7196,
      "▁entspricht": 7197,
      "▁above": 7198,
      "▁legte": 7199,
      "▁Abschluss": 7200,
      "▁${": 7201,
      "▁179": 7202,
      "▁r=10\n": 7203,
      "▁1981": 7204,
      "▁1965": 7205,
      "vorsitz": 7206,
      "▁Prinz": 7207,
      "▁bekam": 7208,
      "igned": 7209,
      "▁verwendet,": 7210,
      "ähler": 7211,
      "▁Südwest": 7212,
      "▁preuß": 7213,
      "▁314.1": 7214,
      "▁Saint": 7215,
      "▁aktuellen": 7216,
      "zentrum": 7217,
      "ziń": 7218,
      "▁deutlich": 7219,
      "▁filename:": 7220,
      "▁contributors:\n": 7221,
      "▁314.16\n": 7222,
      "'re": 7223,
      "Fr": 7224,
      "brit": 7225,
      "iro": 7226,
      "rary": 7227,
      "char": 7228,
      "▁Macht": 7229,
      "▁tot": 7230,
      "ird": 7231,
      "▁länger": 7232,
      "▁Stück": 7233,
      "▁Integer": 7234,
      "▁waren,": 7235,
      "essourc": 7236,
      "▁entdeck": 7237,
      "▁es,": 7238,
      "ithmet": 7239,
      "▁extra": 7240,
      "▁explicit": 7241,
      "▁gewesen": 7242,
      "▁Konz": 7243,
      "▁1969": 7244,
      "▁1933": 7245,
      "redit": 7246,
      "▁rot": 7247,
      "▁heiß": 7248,
      "▁brachte": 7249,
      "▁http://": 7250,
      "▁Leistung": 7251,
      "▁Früh": 7252,
      "lätter": 7253,
      "▁Rudolf": 7254,
      "▁Brzeziń": 7255,
      "DA": 7256,
      "[1]": 7257,
      "ef": 7258,
      "l.": 7259,
      "uz": 7260,
      "vi": 7261,
      "▁sag": 7262,
      "▁Ap": 7263,
      "▁wider": 7264,
      "▁in\n": 7265,
      "led": 7266,
      "▁Fen": 7267,
      "▁Ker": 7268,
      "▁19^2": 7269,
      "▁\"\"": 7270,
      "▁30\n": 7271,
      "▁Inner": 7272,
      "affe": 7273,
      "vertreten": 7274,
      "ossen": 7275,
      "▁61": 7276,
      "▁615.": 7277,
      "ypen": 7278,
      "▁left": 7279,
      "▁++": 7280,
      "okument": 7281,
      "▁Aufgaben": 7282,
      "pl_": 7283,
      "▁160": 7284,
      "▁r=19\n": 7285,
      "▁14^2": 7286,
      "▁here": 7287,
      "bauten": 7288,
      "glied": 7289,
      "ölf": 7290,
      "fül": 7291,
      "zeuge": 7292,
      "▁r=14\n": 7293,
      "▁section": 7294,
      "besitz": 7295,
      "3.1\n": 7296,
      "mutlich": 7297,
      "▁Grab": 7298,
      "▁Herrschaft": 7299,
      "▁engag": 7300,
      "hältnis": 7301,
      "4.11\n": 7302,
      "▁besitzt": 7303,
      "[0]": 7304,
      "▁Wolfgang": 7305,
      "▁natür": 7306,
      "▁jüdischen": 7307,
      "▁Argumente": 7308,
      "▁available": 7309,
      "▁Royal": 7310,
      "▁1134.11\n": 7311,
      "▁Änder": 7312,
      "▁Pelé": 7313,
      "▁qualifiz": 7314,
      "▁615.75\n": 7315,
      "-U": 7316,
      "CO": 7317,
      "iw": 7318,
      "leiter": 7319,
      "mö": 7320,
      "mach": 7321,
      "sozial": 7322,
      "äss": 7323,
      "ano": 7324,
      "ones": 7325,
      "einand": 7326,
      "▁Dial": 7327,
      "▁Figur": 7328,
      "▁Pan": 7329,
      "▁(J": 7330,
      "amin": 7331,
      "▁Ris": 7332,
      "▁Wappen": 7333,
      "otte": 7334,
      "der,": 7335,
      "▁Now": 7336,
      "▁pop": 7337,
      "reifen": 7338,
      "▁Schlei": 7339,
      "istum": 7340,
      "ern.\n": 7341,
      "▁0)": 7342,
      "▁Unabhäng": 7343,
      "▁space": 7344,
      "▁enthalten": 7345,
      "halte": 7346,
      "be,": 7347,
      "▁1977": 7348,
      "▁1962": 7349,
      "▁1966": 7350,
      "output": 7351,
      "▁gerade": 7352,
      "▁Friedhof": 7353,
      "▁Philosoph": 7354,
      "aliforn": 7355,
      "▁Zentrum": 7356,
      "▁diente": 7357,
      "▁Viertel": 7358,
      "isseur": 7359,
      "▁einzelnen": 7360,
      "▁Armee": 7361,
      "38": 7362,
      "86\n": 7363,
      "B.": 7364,
      "bra": 7365,
      "fabrik": 7366,
      "gt,": 7367,
      "garten": 7368,
      "seit": 7369,
      "ttem": 7370,
      "ya": 7371,
      "▁ed": 7372,
      "enter": 7373,
      "▁A.": 7374,
      "ichter": 7375,
      "▁mensch": 7376,
      "▁Fell": 7377,
      "▁Publik": 7378,
      "▁(l": 7379,
      "▁Rab": 7380,
      "▁Wein": 7381,
      "▁Ländern": 7382,
      "▁Iter": 7383,
      "utes": 7384,
      "derich": 7385,
      "▁Japan": 7386,
      "▁kor": 7387,
      "▁mittler": 7388,
      "▁\"hello": 7389,
      "reise": 7390,
      "▁before": 7391,
      "▁32\n": 7392,
      "annot": 7393,
      "istik": 7394,
      "ives": 7395,
      "version": 7396,
      "alls": 7397,
      "▁*L,": 7398,
      "▁of\n": 7399,
      "▁Armen": 7400,
      "law": 7401,
      "▁6^2": 7402,
      "▁r=6\n": 7403,
      "▁113.1\n": 7404,
      "▁-->\n": 7405,
      "richten": 7406,
      "▁1944": 7407,
      "▁elekt": 7408,
      "lowak": 7409,
      "17.": 7410,
      "alisierung": 7411,
      "▁Charles": 7412,
      "▁Objekte": 7413,
      "-Jahr": 7414,
      "-Universität": 7415,
      "▁gesamten": 7416,
      "▁Distri": 7417,
      "lösung": 7418,
      "\";": 7419,
      "([": 7420,
      "_id": 7421,
      "div": 7422,
      "runde": 7423,
      "y.\n": 7424,
      "▁dür": 7425,
      "▁SP": 7426,
      "▁script": 7427,
      "order": 7428,
      "alb": 7429,
      "elten": 7430,
      "ig.": 7431,
      "▁matrix": 7432,
      "▁\\\n": 7433,
      "▁Mach": 7434,
      "▁Mäd": 7435,
      "▁Flo": 7436,
      "▁Rh": 7437,
      "▁Tim": 7438,
      "▁1918": 7439,
      "▁gehen": 7440,
      "▁gar": 7441,
      "reiten": 7442,
      "istent": 7443,
      "▁Inhalt": 7444,
      "ivil": 7445,
      "▁Vertreter": 7446,
      "▁sich,": 7447,
      "▁Anteil": 7448,
      "▁5^2": 7449,
      "▁George": 7450,
      "▁96": 7451,
      "▁exception": 7452,
      "jekte": 7453,
      "press": 7454,
      "▁r=5\n": 7455,
      "▁1971": 7456,
      "▁1952": 7457,
      "▁1937": 7458,
      "▁ausgewähl": 7459,
      "▁führen": 7460,
      "stände": 7461,
      "eln,": 7462,
      "▁beschäft": 7463,
      "▁definition": 7464,
      "▁ehemaliger": 7465,
      "▁bildet": 7466,
      "▁politische": 7467,
      "▁Kopf": 7468,
      "▁tätig.": 7469,
      "▁präsent": 7470,
      "▁internationalen": 7471,
      "▁True\n": 7472,
      "▁europäischen": 7473,
      "▁78.54\n": 7474,
      "-I": 7475,
      "88": 7476,
      "gült": 7477,
      "hen.": 7478,
      "ough": 7479,
      "park": 7480,
      "vis": 7481,
      "▁]\n": 7482,
      "▁Sonder": 7483,
      "▁Bi": 7484,
      "▁Ereig": 7485,
      "▁nor": 7486,
      "▁next": 7487,
      "▁28\n": 7488,
      "▁River": 7489,
      "▁Licht": 7490,
      "▁haupts": 7491,
      "▁Norm": 7492,
      "imension": 7493,
      "lohn": 7494,
      "▁Retent": 7495,
      "▁Spr": 7496,
      "quence": 7497,
      "▁prim": 7498,
      "▁1946": 7499,
      "▁Umgebung": 7500,
      "▁1954": 7501,
      "-Ab": 7502,
      "▁Server": 7503,
      "▁enum": 7504,
      "▁Elemente": 7505,
      "ständnis": 7506,
      "Request": 7507,
      "ühle": 7508,
      "▁öffentlichen": 7509,
      "▁Relig": 7510,
      "▁collection\"\n": 7511,
      "Error": 7512,
      "▁Eigent": 7513,
      "($": 7514,
      "(lua_State": 7515,
      ".html": 7516,
      "57\n": 7517,
      "AS": 7518,
      "Ver": 7519,
      "fession": 7520,
      "rement": 7521,
      "tlichen": 7522,
      "–17": 7523,
      "▁SO": 7524,
      "▁Sor": 7525,
      "▁KI": 7526,
      "▁Prie": 7527,
      "▁Point": 7528,
      "▁Rand": 7529,
      "▁WM": 7530,
      "▁Tu": 7531,
      "rab": 7532,
      "▁Lied": 7533,
      "▁Heute": 7534,
      "▁Na": 7535,
      "▁Class": 7536,
      "▁verließ": 7537,
      "aub": 7538,
      "▁Us": 7539,
      "ungen\n": 7540,
      "▁Einige": 7541,
      "▁9^2": 7542,
      "▁sowjet": 7543,
      "▁r=9\n": 7544,
      "▁1961": 7545,
      "▁254.": 7546,
      "▁jedem": 7547,
      "▁verbess": 7548,
      "cription": 7549,
      "▁Blü": 7550,
      "westlich": 7551,
      "wertung": 7552,
      "strahl": 7553,
      "▁Siedlung": 7554,
      "▁Vorsitzender": 7555,
      "britann": 7556,
      "▁254.47\n": 7557,
      "(t": 7558,
      "47": 7559,
      "49": 7560,
      "CL": 7561,
      "apt": 7562,
      "mor": 7563,
      "wal": 7564,
      "▁dadurch": 7565,
      "▁Ath": 7566,
      "ichtete": 7567,
      "asc": 7568,
      "▁Back": 7569,
      "roff": 7570,
      "▁find": 7571,
      "▁Kolon": 7572,
      "▁Punkte": 7573,
      "▁(200": 7574,
      "rechte": 7575,
      "▁Let": 7576,
      "utn": 7577,
      "▁hät": 7578,
      "▁behand": 7579,
      "▁3^2": 7580,
      "aup": 7581,
      "▁still": 7582,
      "ivid": 7583,
      "▁wirkte": 7584,
      "▁63": 7585,
      "▁67": 7586,
      "▁about": 7587,
      "ordin": 7588,
      "▁extend": 7589,
      "aufhin": 7590,
      "}{3}": 7591,
      "▁darstell": 7592,
      "▁Zeitpunkt": 7593,
      "dern,": 7594,
      "▁1956": 7595,
      "-Mod": 7596,
      "▁Überg": 7597,
      "sprung": 7598,
      "▁parallel": 7599,
      "▁Großbritann": 7600,
      "▁Gerichts": 7601,
      "▁Arrays": 7602,
      "isch-k": 7603,
      "▁religi": 7604,
      "▁https://": 7605,
      "▁Club": 7606,
      "▁beginnt": 7607,
      "Example": 7608,
      "▁außerhalb": 7609,
      "▁Vielzahl": 7610,
      "▁constructor": 7611,
      "schriften": 7612,
      "Type": 7613,
      "a:": 7614,
      "each": 7615,
      "ique": 7616,
      "mon": 7617,
      "masch": 7618,
      "rhein": 7619,
      "stamm": 7620,
      "▁io.": 7621,
      "▁fließ": 7622,
      "emb": 7623,
      "▁RNA": 7624,
      "▁erheb": 7625,
      "▁hello": 7626,
      "entliche": 7627,
      "▁300": 7628,
      "▁Zeilen": 7629,
      "▁Revolution": 7630,
      "▁-1": 7631,
      "verse": 7632,
      "▁repräsent": 7633,
      "örter": 7634,
      "▁hat.\n": 7635,
      "▁produ": 7636,
      "▁\\frac{1": 7637,
      "▁haben.\n": 7638,
      "▁1929": 7639,
      "▁gleichzeitig": 7640,
      "▁Minuten": 7641,
      "▁Juden": 7642,
      "üsseld": 7643,
      "▁Prozess": 7644,
      "ANT": 7645,
      "ministerium": 7646,
      "▁wahrscheinlich": 7647,
      "ländischen": 7648,
      "▁Division": 7649,
      "▁Societ": 7650,
      "▁Console.Write": 7651,
      "▁own": 7652,
      "kreditiv": 7653,
      "ttemberg": 7654,
      "';": 7655,
      "93\n": 7656,
      "kor": 7657,
      "time": 7658,
      "vious": 7659,
      "▁te": 7660,
      "enten": 7661,
      "▁Samm": 7662,
      "▁Single": 7663,
      "at.": 7664,
      "▁both": 7665,
      "igt.": 7666,
      "ung\n": 7667,
      "level": 7668,
      "republik": 7669,
      "ht,": 7670,
      "▁cre": 7671,
      "▁prakt": 7672,
      "▁griech": 7673,
      "▁beste": 7674,
      "▁rele": 7675,
      "▁Anwend": 7676,
      "ested": 7677,
      "▁Spann": 7678,
      "▁these": 7679,
      "e,\n": 7680,
      "avor": 7681,
      "▁Auss": 7682,
      "▁uses": 7683,
      "▁Chor": 7684,
      "zustellen,": 7685,
      "▁beruf": 7686,
      "▁1964": 7687,
      "▁1967": 7688,
      "▁1948": 7689,
      "▁1953": 7690,
      "▁Zukunft": 7691,
      "-Re": 7692,
      "▁stellvertreten": 7693,
      "umenten": 7694,
      "▁offen": 7695,
      "▁Daniel": 7696,
      "▁fanden": 7697,
      "▁gegründet": 7698,
      "▁specific": 7699,
      "▁Fußballspiel": 7700,
      "▁Jean": 7701,
      "▁gemacht": 7702,
      "▁Papst": 7703,
      "▁beendete": 7704,
      "▁beeinfl": 7705,
      "Al": 7706,
      "car": 7707,
      "cast": 7708,
      "f\n": 7709,
      "hör": 7710,
      "ih": 7711,
      "kreuz": 7712,
      "uh": 7713,
      "chen.": 7714,
      "aters": 7715,
      "elt,": 7716,
      "▁Det": 7717,
      "▁Bart": 7718,
      "▁eingeb": 7719,
      "▁zeigen": 7720,
      "▁Pop": 7721,
      "▁Glock": 7722,
      "▁Wild": 7723,
      "▁erfolgt": 7724,
      "▁How": 7725,
      "▁Henn": 7726,
      "▁CON": 7727,
      "▁alte": 7728,
      "eitungs": 7729,
      "▁Stamm": 7730,
      "▁20^2": 7731,
      "aug": 7732,
      "▁40\n": 7733,
      "▁Verbesser": 7734,
      "▁52": 7735,
      "quar": 7736,
      "ner,": 7737,
      "▁r=20\n": 7738,
      "▁Hermann": 7739,
      "▁Brun": 7740,
      "▁Brand": 7741,
      "▁Frage": 7742,
      "▁Teilen": 7743,
      "▁notwend": 7744,
      "site": 7745,
      "lauben": 7746,
      "▁angegeben": 7747,
      "▁Rückkehr": 7748,
      "▁definiert": 7749,
      "▁wenige": 7750,
      "6.64\n": 7751,
      "▁Lehrer": 7752,
      "▁Krim": 7753,
      "▁Themen": 7754,
      "▁heutige": 7755,
      "▁knapp": 7756,
      "▁American": 7757,
      "▁Journalist": 7758,
      "▁1256.64\n": 7759,
      "01": 7760,
      "i)": 7761,
      "nungs": 7762,
      "p\n": 7763,
      "zut": 7764,
      "erte": 7765,
      "arte": 7766,
      "▁sem": 7767,
      "▁shader": 7768,
      "alys": 7769,
      "▁Düsseld": 7770,
      "det.": 7771,
      "defin": 7772,
      "▁tr": 7773,
      "▁Pau": 7774,
      "▁person": 7775,
      "irm": 7776,
      "▁zuletzt": 7777,
      "iko": 7778,
      "▁48\n": 7779,
      "▁58": 7780,
      "▁18^2": 7781,
      "▁Einführung": 7782,
      "▁wert": 7783,
      "▁201.0": 7784,
      "▁89": 7785,
      "▁8^2": 7786,
      "▁1017.": 7787,
      "}{7}": 7788,
      "▁r=8\n": 7789,
      "▁11^2": 7790,
      "▁Teilnehmer": 7791,
      "zeugen": 7792,
      "▁r=18\n": 7793,
      "▁r=11\n": 7794,
      "struct": 7795,
      "▁380.1": 7796,
      "▁Verbind": 7797,
      "▁Stellen": 7798,
      "▁Tabellen": 7799,
      "▁Liefert": 7800,
      "local": 7801,
      "▁Dresden": 7802,
      "▁Widerstand": 7803,
      "wissenschaften": 7804,
      "▁College": 7805,
      "▁\"https://github.com/": 7806,
      "▁201.06\n": 7807,
      "▁1017.88\n": 7808,
      "▁380.13\n": 7809,
      "-m": 7810,
      "By": 7811,
      "\\*": 7812,
      "cel": 7813,
      "ging": 7814,
      "lers": 7815,
      "rt": 7816,
      "▁don't": 7817,
      "▁Asp": 7818,
      "▁1000": 7819,
      "▁Bab": 7820,
      "▁(p": 7821,
      "▁GmbH": 7822,
      "▁Tätigkeit": 7823,
      "reement": 7824,
      "▁Los": 7825,
      "▁cas": 7826,
      "▁deshalb": 7827,
      "▁\"O": 7828,
      "▁Object": 7829,
      "▁Diederich": 7830,
      "▁Veröffentlich": 7831,
      "▁e.": 7832,
      "open": 7833,
      "odor": 7834,
      "▁schaff": 7835,
      "▁6,": 7836,
      "▁entschied": 7837,
      "obacht": 7838,
      "▁16^2": 7839,
      "▁r=3\n": 7840,
      "▁Beide": 7841,
      "▁orig": 7842,
      "▁folgten": 7843,
      "burg,": 7844,
      "▁1942": 7845,
      "-Aus": 7846,
      "▁betrug": 7847,
      "4.25\n": 7848,
      "▁r=16\n": 7849,
      "▁Mannschaften": 7850,
      "▁erwarb": 7851,
      "länger": 7852,
      "▁quot": 7853,
      "velop": 7854,
      "▁weitgehend": 7855,
      "▁804.25\n": 7856,
      "▁28.27\n": 7857,
      "▁Probleme": 7858,
      "▁Agreement": 7859,
      "▁530.": 7860,
      "▁Liga": 7861,
      "▁hauptsächlich": 7862,
      "57": 7863,
      "EP": 7864,
      "iqu": 7865,
      "jor": 7866,
      "kund": 7867,
      "mehr": 7868,
      "án": 7869,
      "anische": 7870,
      "ona": 7871,
      "▁South": 7872,
      "▁sig": 7873,
      "▁Aben": 7874,
      "▁Award": 7875,
      "▁Ball": 7876,
      "▁zuf": 7877,
      "▁Fäl": 7878,
      "▁fail": 7879,
      "▁Grä": 7880,
      "▁Rat": 7881,
      "heater": 7882,
      "▁kauf": 7883,
      "▁poten": 7884,
      "▁bezeich": 7885,
      "▁stor": 7886,
      "▁ausschließlich": 7887,
      "ienten": 7888,
      "▁spielt": 7889,
      "größ": 7890,
      "▁91": 7891,
      "▁99": 7892,
      "ays": 7893,
      "pliz": 7894,
      "▁Champ": 7895,
      "▁Vorg": 7896,
      "io.": 7897,
      "▁kann.\n": 7898,
      "▁Brücke": 7899,
      "▁;;\n": 7900,
      "▁grund": 7901,
      "partem": 7902,
      "▁enc": 7903,
      "▁wichtige": 7904,
      "▁Brauerei": 7905,
      "ESS": 7906,
      "▁gestal": 7907,
      "▁Kontakt": 7908,
      "▁declare": 7909,
      "▁equivalent": 7910,
      "atalog": 7911,
      "▁Epis": 7912,
      "▁ausgezeichnet.\n": 7913,
      "▁geboren.": 7914,
      "▁damaligen": 7915,
      "ponse": 7916,
      "-d": 7917,
      "-p": 7918,
      "5)": 7919,
      "79": 7920,
      "bie": 7921,
      "band": 7922,
      "zahlen": 7923,
      "üsse": 7924,
      "erer": 7925,
      "eres": 7926,
      "sters": 7927,
      "anwalt": 7928,
      "▁Denn": 7929,
      "▁Bus": 7930,
      "▁eingesetzt": 7931,
      "lear": 7932,
      "▁(s.": 7933,
      "▁Rub": 7934,
      "▁True": 7935,
      "rest": 7936,
      "iller": 7937,
      "▁Cast": 7938,
      "▁vertex": 7939,
      "▁Stra": 7940,
      "▁steh": 7941,
      "▁4^2": 7942,
      "▁Anschluss": 7943,
      "ünsch": 7944,
      "essing": 7945,
      "ringt": 7946,
      "▁Abschnitt": 7947,
      "▁user": 7948,
      "ply": 7949,
      "▁Größe": 7950,
      "▁\\frac{14": 7951,
      "▁r=4\n": 7952,
      "▁13^2": 7953,
      "▁anderer": 7954,
      "▁Here": 7955,
      "führt.\n": 7956,
      "format": 7957,
      "geschoss": 7958,
      "();": 7959,
      "▁r=13\n": 7960,
      "▁gefunden": 7961,
      "▁show": 7962,
      "▁Grafen": 7963,
      "▁Dortmund": 7964,
      "▁Schauspielerin": 7965,
      "▁Bezirks": 7966,
      "▁Augen": 7967,
      "▁50.27\n": 7968,
      "▁Zürich": 7969,
      "▁530.93\n": 7970,
      "-st": 7971,
      "31": 7972,
      "50\n": 7973,
      "IM": 7974,
      "V.": 7975,
      "pret": 7976,
      "wes": 7977,
      "work": 7978,
      "▁tex": 7979,
      "stuf": 7980,
      "▁Sei": 7981,
      "ross": 7982,
      "▁Feuer": 7983,
      "▁Krieges": 7984,
      "▁Listen": 7985,
      "▁IS": 7986,
      "▁Cy": 7987,
      "lichkeiten": 7988,
      "▁langen": 7989,
      "aubs": 7990,
      "▁sein.\n": 7991,
      "▁Anwendung": 7992,
      "ube": 7993,
      "ariable": 7994,
      "▁17^2": 7995,
      "▁Maß": 7996,
      "▁Zeitschrift": 7997,
      "▁print(": 7998,
      "programm": 7999,
      "▁Exper": 8000,
      "▁US-D": 8001,
      "mitt": 8002,
      "▁erstes": 8003,
      "▁r=17\n": 8004,
      ")))\n": 8005,
      "▁Typen": 8006,
      "achsenen": 8007,
      "▁Daneben": 8008,
      "schutzgebiet": 8009,
      "▁Demokrat": 8010,
      "▁Ehefrau": 8011,
      "▁Simon": 8012,
      "▁Führung": 8013,
      "▁907.": 8014,
      "▁Rött": 8015,
      "kräfte": 8016,
      "▁907.92\n": 8017,
      "dd": 8018,
      "gy": 8019,
      "hung": 8020,
      "▁dich": 8021,
      "▁dir": 8022,
      "unn": 8023,
      "▁Sauer": 8024,
      "▁Sänger": 8025,
      "▁view": 8026,
      "rochen": 8027,
      "▁take": 8028,
      "▁Gran": 8029,
      "▁Gust": 8030,
      "▁Ren": 8031,
      "▁Wor": 8032,
      "▁Chl": 8033,
      "▁1914": 8034,
      "▁anzu": 8035,
      "▁vergleich": 8036,
      "▁Strom": 8037,
      "▁Stapel": 8038,
      "▁Over": 8039,
      "istan": 8040,
      "losen": 8041,
      "▁jähr": 8042,
      "▁Bezug": 8043,
      "▁71": 8044,
      "▁74": 8045,
      "▁ab.\n": 8046,
      "▁84": 8047,
      "▁sofort": 8048,
      "▁1935": 8049,
      "hauses": 8050,
      "▁Reihen": 8051,
      "▁Monate": 8052,
      "--------------------------------------------": 8053,
      "weisung": 8054,
      "▁französische": 8055,
      "▁Radio": 8056,
      "▁zahlreichen": 8057,
      "▁Jackson": 8058,
      "▁doesn't": 8059,
      "▁russischen": 8060,
      "▁named": 8061,
      "▁Victoria": 8062,
      "▁Gespräch": 8063,
      "FA": 8064,
      "ften": 8065,
      "gart": 8066,
      "ji": 8067,
      "kraft": 8068,
      "lad": 8069,
      "namen": 8070,
      "tliche": 8071,
      "uted": 8072,
      "wach": 8073,
      "äische": 8074,
      "ón": 8075,
      "▁dynam": 8076,
      "▁Sammlung": 8077,
      "▁written": 8078,
      "gegeben": 8079,
      "lehn": 8080,
      "▁fäl": 8081,
      "▁2^2": 8082,
      "umpf": 8083,
      "ischem": 8084,
      "uther": 8085,
      "▁Vom": 8086,
      "▁Jac": 8087,
      "either": 8088,
      "reisen": 8089,
      "annt.\n": 8090,
      "▁stammen": 8091,
      "▁400": 8092,
      "▁event": 8093,
      "▁-n": 8094,
      "▁54": 8095,
      "aller": 8096,
      "▁ret": 8097,
      "▁{}": 8098,
      "▁76": 8099,
      "▁77": 8100,
      "▁speich": 8101,
      "halle": 8102,
      "this": 8103,
      "▁<-": 8104,
      "▁1947": 8105,
      "▁christ": 8106,
      "▁verbunden": 8107,
      "result": 8108,
      "haber": 8109,
      "▁==\n": 8110,
      "▁Emil": 8111,
      "▁Tages": 8112,
      "▁Beschreibung": 8113,
      "▁Laufe": 8114,
      "▁westlich": 8115,
      "▁zusätzlich": 8116,
      "ränk": 8117,
      "▁Verfügung": 8118,
      "▁Hannover": 8119,
      "arbeitet": 8120,
      "▁trotz": 8121,
      "▁übernommen": 8122,
      "FF": 8123,
      "_32": 8124,
      "aun": 8125,
      "i/": 8126,
      "oin": 8127,
      "va": 8128,
      "error": 8129,
      "stant": 8130,
      "▁Sonnen": 8131,
      "▁der\n": 8132,
      "▁Klin": 8133,
      "▁Win": 8134,
      "schloss": 8135,
      "▁Tradition": 8136,
      "▁Laut": 8137,
      "▁Häus": 8138,
      "heor": 8139,
      "▁cor": 8140,
      "▁gib": 8141,
      "reiter": 8142,
      "edition": 8143,
      "speicher": 8144,
      "rige": 8145,
      "▁überprü": 8146,
      "▁wirtschaft": 8147,
      "▁68": 8148,
      "▁88": 8149,
      "werte": 8150,
      "pres": 8151,
      "▁Beispiele": 8152,
      "▁-->": 8153,
      "▁Bres": 8154,
      "formen": 8155,
      "▁zurück.\n": 8156,
      "uropameister": 8157,
      "▁erhält": 8158,
      "▁1928": 8159,
      "▁German": 8160,
      "ädt": 8161,
      "ändert": 8162,
      "▁Trainer": 8163,
      "▁Carol": 8164,
      "▁ganze": 8165,
      "gorith": 8166,
      "++)": 8167,
      "▁Beziehung": 8168,
      "▁support": 8169,
      "▁Premier": 8170,
      "6)": 8171,
      "Mod": 8172,
      "Qu": 8173,
      "aktiv": 8174,
      "cted": 8175,
      "mp": 8176,
      "p>": 8177,
      "zur": 8178,
      "äs": 8179,
      "ädig": 8180,
      "üst": 8181,
      "iefer": 8182,
      "unternehmen": 8183,
      "unden.": 8184,
      "▁1;\n": 8185,
      "▁includ": 8186,
      "▁Bilder": 8187,
      "▁mag": 8188,
      "▁möch": 8189,
      "▁id": 8190,
      "▁Mül": 8191,
      "▁Fass": 8192,
      "▁Ehr": 8193,
      "▁((": 8194,
      "▁(16": 8195,
      "▁Ressourc": 8196,
      "ando": 8197,
      "ref": 8198,
      "▁Liber": 8199,
      "▁hil": 8200,
      "▁always": 8201,
      "▁begrenz": 8202,
      "▁ausführ": 8203,
      "änz": 8204,
      "ehlen": 8205,
      "pper": 8206,
      "▁through": 8207,
      "▁62": 8208,
      "önig": 8209,
      "▁:-": 8210,
      "▁1941": 8211,
      "▁Gesell": 8212,
      "▁gehörten": 8213,
      "▁useful": 8214,
      "ikanische": 8215,
      "-West": 8216,
      "▁!=": 8217,
      "▁Hochschul": 8218,
      "▁solche": 8219,
      "▁similar": 8220,
      "▁helfen,": 8221,
      "\\n\",": 8222,
      "zuführ": 8223,
      "medaille": 8224,
      "▁lebte": 8225,
      "▁gesamte": 8226,
      "gefähr": 8227,
      "▁Zentimeter": 8228,
      "/c": 8229,
      "2]": 8230,
      "44": 8231,
      "gt.": 8232,
      "h,": 8233,
      "histor": 8234,
      "path": 8235,
      "ren": 8236,
      "ras": 8237,
      "uc": 8238,
      "ye": 8239,
      "zü": 8240,
      "▁dein": 8241,
      "▁super": 8242,
      "ali": 8243,
      "▁Dé": 8244,
      "▁inform": 8245,
      "▁instead": 8246,
      "▁But": 8247,
      "▁Baden": 8248,
      "igt,": 8249,
      "de.": 8250,
      "▁Moder": 8251,
      "▁Kenn": 8252,
      "▁(I": 8253,
      "▁Wand": 8254,
      "▁Human": 8255,
      "▁Nur": 8256,
      "head": 8257,
      "▁poss": 8258,
      "▁Op": 8259,
      "▁UN": 8260,
      "▁Ul": 8261,
      "istenz": 8262,
      "▁richt": 8263,
      "▁dec": 8264,
      "gerichts": 8265,
      "▁sprach": 8266,
      "bew": 8267,
      "udo": 8268,
      "lands": 8269,
      "▁zwölf": 8270,
      "▁neues": 8271,
      "▁1951": 8272,
      "lager": 8273,
      "minist": 8274,
      "▁address": 8275,
      "legung": 8276,
      "▁static": 8277,
      "▁Medizin": 8278,
      "▁Münster": 8279,
      "▁Train": 8280,
      "▁Produkt": 8281,
      "](https://github.com/": 8282,
      "▁Bestand": 8283,
      "▁sollen": 8284,
      "▁Belg": 8285,
      "▁Zentral": 8286,
      "▁Schriftstell": 8287,
      "▁Organisation": 8288,
      "▁Schildhorn": 8289,
      "▁Akademie": 8290,
      "▁Brzeziński": 8291,
      "67": 8292,
      "An": 8293,
      "[\"": 8294,
      "e)": 8295,
      "script": 8296,
      "typ": 8297,
      "▁display": 8298,
      "ie.": 8299,
      "on.": 8300,
      "▁samm": 8301,
      "it,": 8302,
      "unden,": 8303,
      "▁Dann": 8304,
      "▁Data": 8305,
      "igkeits": 8306,
      "▁ein.\n": 8307,
      "▁männ": 8308,
      "▁zroot": 8309,
      "▁Mechan": 8310,
      "▁Paar": 8311,
      "▁Güter": 8312,
      "▁Nat": 8313,
      "▁Nav": 8314,
      "▁Jes": 8315,
      "▁Col": 8316,
      "▁Create": 8317,
      "▁1925": 8318,
      "▁geprä": 8319,
      "▁gemäß": 8320,
      "▁cal": 8321,
      "▁#include": 8322,
      "▁vermutlich": 8323,
      "▁Verkauf": 8324,
      "▁Read": 8325,
      "▁Anlage": 8326,
      "ücksicht": 8327,
      "▁98": 8328,
      "hoben": 8329,
      "▁r=2\n": 8330,
      "leiche": 8331,
      "▁Funktions": 8332,
      "▁this.": 8333,
      "rechts": 8334,
      "gestellten": 8335,
      "ligisten": 8336,
      "▁Zweit": 8337,
      "▁Millimeter": 8338,
      "▁special": 8339,
      "▁12.57\n": 8340,
      "▁(sie": 8341,
      "▁means": 8342,
      "▁Eingabe": 8343,
      "▁Frankfur": 8344,
      "▁Smith": 8345,
      "THER": 8346,
      "▁Studenten": 8347,
      "▁provide": 8348,
      "▁sogenannten": 8349,
      "▁programming": 8350,
      "▁Situation": 8351,
      "isch-kathol": 8352,
      "']": 8353,
      ".get": 8354,
      "Buffer": 8355,
      "US": 8356,
      "block": 8357,
      "k\n": 8358,
      "kur": 8359,
      "position": 8360,
      "sen,": 8361,
      "utet": 8362,
      "ühm": 8363,
      "▁dritte": 8364,
      "stu": 8365,
      "▁integr": 8366,
      "▁Big": 8367,
      "▁Bill": 8368,
      "rodu": 8369,
      "▁Fund": 8370,
      "▁Ram": 8371,
      "▁Rennen": 8372,
      "▁Wid": 8373,
      "▁Wechsel": 8374,
      "▁T.": 8375,
      "gentin": 8376,
      "▁Cas": 8377,
      "▁1900": 8378,
      "▁pla": 8379,
      "▁verlassen": 8380,
      "▁Stock": 8381,
      "▁3]": 8382,
      "▁Intel": 8383,
      "icate": 8384,
      "änden": 8385,
      "attform": 8386,
      "▁1955": 8387,
      "▁wiederum": 8388,
      "▁1936": 8389,
      "▁do\n": 8390,
      "▁Prim": 8391,
      "-Kon": 8392,
      "▁Schwarz": 8393,
      "eln.": 8394,
      "▁Europäischen": 8395,
      "▁Folgen": 8396,
      "maß": 8397,
      "▁####": 8398,
      "▁gegründet.": 8399,
      "nummer": 8400,
      "ehmen,": 8401,
      "▁Beziehungen": 8402,
      "▁erbaut": 8403,
      "▁Investition": 8404,
      "▁weltweit": 8405,
      "▁Allerdings": 8406,
      "▁Röttgen": 8407,
      "'ll": 8408,
      ":0": 8409,
      "UE": 8410,
      "Var": 8411,
      "_name": 8412,
      "float": 8413,
      "rc": 8414,
      "titel": 8415,
      "zwei": 8416,
      "▁Sach": 8417,
      "▁sk": 8418,
      "alte": 8419,
      "▁under": 8420,
      "igungs": 8421,
      "▁mm": 8422,
      "▁Mess": 8423,
      "▁Mex": 8424,
      "▁Wür": 8425,
      "▁Waffen": 8426,
      "isch,": 8427,
      "▁Vize": 8428,
      "▁Centr": 8429,
      "▁path": 8430,
      "ürn": 8431,
      "▁verpf": 8432,
      "▁Zun": 8433,
      "▁45\n": 8434,
      "▁umben": 8435,
      "▁then\n": 8436,
      "beweg": 8437,
      "neter": 8438,
      "▁15^2": 8439,
      "ifik": 8440,
      "ards": 8441,
      "▁within": 8442,
      "}{11}": 8443,
      "▁\\frac{18": 8444,
      "lassung": 8445,
      "heit,": 8446,
      "▁Partner": 8447,
      "▁Schwester": 8448,
      "muse": 8449,
      "▁r=15\n": 8450,
      "gewicht": 8451,
      "▁erwar": 8452,
      "▁früh": 8453,
      "▁Israel": 8454,
      "▁Komponist": 8455,
      "6.86\n": 8456,
      "▁Brackel": 8457,
      "kirchen": 8458,
      "▁links": 8459,
      "▁Rotmil": 8460,
      "▁706.86\n": 8461,
      "▁Bayern": 8462,
      "▁Kanton": 8463,
      "▁Hafen": 8464,
      "▁amerikanischen": 8465,
      "▁Soldaten": 8466,
      "▁Schließlich": 8467,
      "▁norweg": 8468,
      "(a,": 8469,
      "3]": 8470,
      "65": 8471,
      "72": 8472,
      "89": 8473,
      "My": 8474,
      "dach": 8475,
      "kret": 8476,
      "nern": 8477,
      "px": 8478,
      "write": 8479,
      "ötz": 8480,
      "üpf": 8481,
      "▁‚": 8482,
      "▁d.": 8483,
      "▁brach": 8484,
      "▁Mas": 8485,
      "▁Evangel": 8486,
      "▁Kunden": 8487,
      "▁nehmen": 8488,
      "▁Grupp": 8489,
      "▁Wit": 8490,
      "▁When": 8491,
      "▁Tore": 8492,
      "reform": 8493,
      "et,": 8494,
      "▁hör": 8495,
      "▁\"n": 8496,
      "▁Schles": 8497,
      "ed.\n": 8498,
      "afe": 8499,
      "▁Referenz": 8500,
      "splatz": 8501,
      "▁überwiegend": 8502,
      "gebot": 8503,
      "▁||": 8504,
      "plate": 8505,
      "▁prints": 8506,
      "example": 8507,
      "▁Brasil": 8508,
      "▁betrachte": 8509,
      "▁works": 8510,
      "fühl": 8511,
      "laubt": 8512,
      "▁Elis": 8513,
      "▁kleiner": 8514,
      "ARR": 8515,
      "▁Antwort": 8516,
      "▁trace": 8517,
      "▁entsprechend": 8518,
      "▁bestimmte": 8519,
      "modell": 8520,
      "pect": 8521,
      "▁bedeute": 8522,
      "▁optional": 8523,
      "▁ähnlich": 8524,
      "lätze": 8525,
      "wirkungen": 8526,
      "▁belegte": 8527,
      "einanders": 8528,
      "▁Mädchen": 8529,
      "(\n": 8530,
      "(m": 8531,
      "@\"": 8532,
      "Size": 8533,
      "ait": 8534,
      "fon": 8535,
      "griff": 8536,
      "kord": 8537,
      "punkte": 8538,
      "ysi": 8539,
      "erischen": 8540,
      "chem": 8541,
      "ini": 8542,
      "▁dient": 8543,
      "ieger": 8544,
      "▁Av": 8545,
      "▁120": 8546,
      "atter": 8547,
      "▁Bob": 8548,
      "▁eingesch": 8549,
      "▁mult": 8550,
      "▁Merk": 8551,
      "▁fertig": 8552,
      "▁trägt": 8553,
      "▁Kas": 8554,
      "▁(i": 8555,
      "▁(mit": 8556,
      "▁Rob": 8557,
      "▁cannot": 8558,
      "▁\"a": 8559,
      "▁zugleich": 8560,
      "▁link": 8561,
      "▁stellen": 8562,
      "▁ausger": 8563,
      "▁unabhäng": 8564,
      "▁51": 8565,
      "▁siehe": 8566,
      "▁jungen": 8567,
      "▁Altern": 8568,
      "▁Proxy": 8569,
      "▁'b": 8570,
      "▁150": 8571,
      "iertes": 8572,
      "▁with\n": 8573,
      "▁Vorder": 8574,
      "▁mehrfach": 8575,
      "▁Herbst": 8576,
      "▁Landschafts": 8577,
      "▁1934": 8578,
      "▁endgült": 8579,
      "▁Quellen": 8580,
      "▁bestätig": 8581,
      "crip": 8582,
      "▁resul": 8583,
      "präsident": 8584,
      "▁bekannt.": 8585,
      "gangs": 8586,
      "▁Empf": 8587,
      "▁gefähr": 8588,
      "▁prefix": 8589,
      "▁mussten": 8590,
      "▁Unternehmens": 8591,
      "swahl": 8592,
      "▁created": 8593,
      "-color": 8594,
      "▁gewählt.": 8595,
      "▁Architektur": 8596,
      "▁früheren": 8597,
      "▁italienischen": 8598,
      "organis": 8599,
      "▁Mosk": 8600,
      "pl_u": 8601,
      "▁Distrikt": 8602,
      "',\n": 8603,
      "(10": 8604,
      "-3": 8605,
      "63": 8606,
      "AD": 8607,
      "bus": 8608,
      "für": 8609,
      "funk": 8610,
      "ki": 8611,
      "wende": 8612,
      "onent": 8613,
      "▁ST": 8614,
      "▁1;": 8615,
      "▁bound": 8616,
      "▁Bu": 8617,
      "▁Bre": 8618,
      "▁Map": 8619,
      "lett": 8620,
      "▁nied": 8621,
      "▁Rou": 8622,
      "▁Rost": 8623,
      "▁Ly": 8624,
      "▁Han": 8625,
      "▁denk": 8626,
      "se,": 8627,
      "▁pred": 8628,
      "irche": 8629,
      "▁long": 8630,
      "▁very": 8631,
      "afrika": 8632,
      "sprä": 8633,
      "ernseh": 8634,
      "▁reduz": 8635,
      "▁Import": 8636,
      "▁95": 8637,
      "▁Leg": 8638,
      "gesp": 8639,
      "}{9}": 8640,
      "▁\\frac{9": 8641,
      "▁Franc": 8642,
      "autor": 8643,
      "▁Quadrat": 8644,
      "setzen": 8645,
      "iedlung": 8646,
      "▁Bundest": 8647,
      "-Er": 8648,
      "▁Symbol": 8649,
      "▁gleichnam": 8650,
      "östlichen": 8651,
      "▁Interessen": 8652,
      "▁previous": 8653,
      "▁short": 8654,
      "▁Skript": 8655,
      "▁Operationen": 8656,
      "▁unterschiedlichen": 8657,
      ".txt": 8658,
      "▁Kindern": 8659,
      "▁gegebenen": 8660,
      "▁Schmid": 8661,
      "▁Psychologie": 8662,
      "▁JavaScript": 8663,
      "▁verantwortlich": 8664,
      "▁Fähigkeiten": 8665,
      "▁verloren": 8666,
      "▁verläuft": 8667,
      "▁(siehe": 8668,
      "A)": 8669,
      "CI": 8670,
      "DF": 8671,
      "HT": 8672,
      "With": 8673,
      "bürger": 8674,
      "eck": 8675,
      "jur": 8676,
      "n.": 8677,
      "ois": 8678,
      "y)": 8679,
      "▁either": 8680,
      "in.\n": 8681,
      "eiche": 8682,
      "▁Sw": 8683,
      "▁sehen": 8684,
      "▁since": 8685,
      "▁well": 8686,
      "itsch": 8687,
      "itts": 8688,
      "at,": 8689,
      "▁beit": 8690,
      "usion": 8691,
      "▁First": 8692,
      "▁FOR": 8693,
      "▁Klass": 8694,
      "▁25\n": 8695,
      "▁P(": 8696,
      "▁(+": 8697,
      "et.": 8698,
      "▁heil": 8699,
      "▁hielt": 8700,
      "▁Vim": 8701,
      "▁Vektor": 8702,
      "▁Camp": 8703,
      "▁1910": 8704,
      "▁\"m": 8705,
      "▁git": 8706,
      "▁galt": 8707,
      "▁Schott": 8708,
      "▁Initi": 8709,
      "industrie": 8710,
      "ängt": 8711,
      "änglich": 8712,
      "▁50\n": 8713,
      "▁Alfred": 8714,
      "▁untersuch": 8715,
      "aka": 8716,
      "▁Auseinanders": 8717,
      "▁forder": 8718,
      "ammern": 8719,
      "agegen": 8720,
      "hen.\n": 8721,
      "-System": 8722,
      "▁\\frac{5": 8723,
      "▁konzentr": 8724,
      "▁sollte.": 8725,
      "musik": 8726,
      "▁Rock": 8727,
      "▁Vereins": 8728,
      "ocker": 8729,
      "gemeinschaft": 8730,
      "mutable": 8731,
      "▁Bildung": 8732,
      "▁erkenn": 8733,
      "▁Dazu": 8734,
      "▁Herren": 8735,
      "▁bilden": 8736,
      "▁methods": 8737,
      "▁Portug": 8738,
      "▁Gottes": 8739,
      "▁entfernt": 8740,
      "****************": 8741,
      "▁Akkreditiv": 8742,
      "▁höchsten": 8743,
      "▁Firma": 8744,
      "▁Andreas": 8745,
      "▁Pflanzen": 8746,
      "▁Kategorie": 8747,
      "▁Fenster": 8748,
      "/)": 8749,
      "=\n": 8750,
      "IV": 8751,
      "ford": 8752,
      "js": 8753,
      "err": 8754,
      "eisen": 8755,
      "▁sor": 8756,
      "▁word": 8757,
      "▁D3D": 8758,
      "▁Bitte": 8759,
      "▁Pfer": 8760,
      "▁(r": 8761,
      "▁(eng": 8762,
      "▁Weil": 8763,
      "▁Cup": 8764,
      "▁gepl": 8765,
      "▁passe": 8766,
      "▁lauf": 8767,
      "abelle": 8768,
      "▁eas": 8769,
      "▁Error": 8770,
      "▁Erweiter": 8771,
      "▁reference": 8772,
      "▁72": 8773,
      "▁entlang": 8774,
      "gelassen": 8775,
      "▁Auswahl": 8776,
      "obach": 8777,
      "▁Aufgabe": 8778,
      "▁Kons": 8779,
      "lash": 8780,
      "▁1960er": 8781,
      "▁Entwurf": 8782,
      "▁Ihrem": 8783,
      "fallen": 8784,
      "brücke": 8785,
      "▁1922": 8786,
      "▁Interesse": 8787,
      "▁beförder": 8788,
      "▁obwohl": 8789,
      "▁director": 8790,
      "▁head": 8791,
      "▁Computer": 8792,
      "▁Höhen": 8793,
      "▁Dipl": 8794,
      "▁Baron": 8795,
      "archiv": 8796,
      "porte": 8797,
      "▁Dateien": 8798,
      "▁Zugang": 8799,
      "▁historischen": 8800,
      "▁Wirtschaft": 8801,
      "▁package": 8802,
      "-line": 8803,
      "/h": 8804,
      "42": 8805,
      "C.": 8806,
      "ekte": 8807,
      "frei": 8808,
      "garn": 8809,
      "jen": 8810,
      "lib": 8811,
      "zust": 8812,
      "},": 8813,
      "inu": 8814,
      "stätte": 8815,
      "only": 8816,
      "under": 8817,
      "▁inzwischen": 8818,
      "▁Float": 8819,
      "▁Ever": 8820,
      "▁Kamer": 8821,
      "▁27\n": 8822,
      "▁Penn": 8823,
      "▁(deutsch": 8824,
      "▁Gab": 8825,
      "▁Gymnasium": 8826,
      "▁TV": 8827,
      "▁Tele": 8828,
      "▁erzähl": 8829,
      "▁Hu": 8830,
      "▁Hart": 8831,
      "omot": 8832,
      "▁Voll": 8833,
      "▁J.": 8834,
      "▁laut": 8835,
      "▁gu": 8836,
      "▁gingen": 8837,
      "▁Straf": 8838,
      "▁OS": 8839,
      "▁Orig": 8840,
      "▁Zahlen": 8841,
      "istisch": 8842,
      "ed,": 8843,
      "▁rück": 8844,
      "▁x\n": 8845,
      "ride": 8846,
      "▁*)": 8847,
      "▁token": 8848,
      "lied": 8849,
      "ppen": 8850,
      "▁92": 8851,
      "▁Ausstellung": 8852,
      "▁valid": 8853,
      "issen,": 8854,
      "out.": 8855,
      "▁grenz": 8856,
      "▁strings": 8857,
      "▁Phys": 8858,
      "▁allgemein": 8859,
      "elete": 8860,
      "▁Bundesstaat": 8861,
      "▁beschrieben": 8862,
      "▁Öl": 8863,
      "▁otherwise": 8864,
      "klus": 8865,
      "mittelbar": 8866,
      "▁relativ": 8867,
      "▁britische": 8868,
      "▁Wiener": 8869,
      "▁Erklär": 8870,
      "▁Group": 8871,
      "▁bleibt": 8872,
      "▁genutzt": 8873,
      "▁Städte": 8874,
      "place": 8875,
      "▁Förderung": 8876,
      "▁Tschech": 8877,
      "▁Return": 8878,
      "ithmetic": 8879,
      "partement": 8880,
      "▁US-Dollar": 8881,
      "pus": 8882,
      "penden": 8883,
      "type": 8884,
      "u.": 8885,
      "will": 8886,
      "zo": 8887,
      "öd": 8888,
      "inar": 8889,
      "▁sort": 8890,
      "▁sod": 8891,
      "gelegen": 8892,
      "▁b)": 8893,
      "▁inside": 8894,
      "▁Mak": 8895,
      "▁Fein": 8896,
      "▁($": 8897,
      "olden": 8898,
      "etter": 8899,
      "▁Hello": 8900,
      "ier,": 8901,
      "▁Nürn": 8902,
      "header": 8903,
      "▁Clo": 8904,
      "▁\"p": 8905,
      "▁Stre": 8906,
      "▁Ufer": 8907,
      "loop": 8908,
      "▁Rech": 8909,
      "▁sicher,": 8910,
      "lack": 8911,
      "▁schön": 8912,
      "artige": 8913,
      "▁66": 8914,
      "▁7,": 8915,
      "▁'$": 8916,
      "▁81": 8917,
      "rächt": 8918,
      "ney": 8919,
      "▁$a": 8920,
      "▁</": 8921,
      "}{2}": 8922,
      "linge": 8923,
      "rats": 8924,
      "aces": 8925,
      "▁weiteres": 8926,
      "▁folgen": 8927,
      "▁besaß": 8928,
      "▁Spiels": 8929,
      "▁self.": 8930,
      "ieren\n": 8931,
      "▁Mary": 8932,
      "▁1932": 8933,
      "▁Quelle": 8934,
      "▁1927": 8935,
      "▁Blut": 8936,
      "länge": 8937,
      "▁(Sch": 8938,
      "▁Wilson": 8939,
      "▁Basel": 8940,
      "▁Hochschule": 8941,
      "▁möglich,": 8942,
      "▁Einwohnern": 8943,
      "▁Dokumente": 8944,
      "markt": 8945,
      "▁nördlichen": 8946,
      "▁contains": 8947,
      "hebung": 8948,
      "▁Trotz": 8949,
      "▁lokale": 8950,
      "▁endete": 8951,
      "▁geworden": 8952,
      "▁Suche": 8953,
      "▁Erfahrungen": 8954,
      "▁Propagand": 8955,
      "ächsischen": 8956,
      "▁jünger": 8957,
      "▁Console.WriteLine": 8958,
      "▁Chlor": 8959,
      "_list": 8960,
      "blätter": 8961,
      "iar": 8962,
      "kov": 8963,
      "klär": 8964,
      "rund": 8965,
      "til": 8966,
      "uccess": 8967,
      "vo": 8968,
      "wart": 8969,
      "zeiten": 8970,
      "ared": 8971,
      "▁side": 8972,
      "▁Ac": 8973,
      "▁Ast": 8974,
      "▁weist": 8975,
      "ites": 8976,
      "ely": 8977,
      "▁Mong": 8978,
      "▁Fak": 8979,
      "▁tats": 8980,
      "▁Eff": 8981,
      "tents": 8982,
      "▁Gul": 8983,
      "▁Wall": 8984,
      "▁Ta": 8985,
      "▁Hy": 8986,
      "▁kultur": 8987,
      "▁alt": 8988,
      "▁Ukra": 8989,
      "▁Verständnis": 8990,
      "▁übergeben": 8991,
      "laden": 8992,
      "▁untersch": 8993,
      "▁unterrich": 8994,
      "▁[:a": 8995,
      "▁entscheiden": 8996,
      "▁Def": 8997,
      "fragen": 8998,
      "▁$b": 8999,
      "ierte.": 9000,
      "folgen": 9001,
      "▁1990er": 9002,
      "führt,": 9003,
      "▁Brandenburg": 9004,
      "▁weiterer": 9005,
      "▁assert": 9006,
      "▁Regisseur": 9007,
      "▁Umwelt": 9008,
      "ubliz": 9009,
      "▁verbrei": 9010,
      "handlungen": 9011,
      "▁Ortschaft": 9012,
      "▁Fürst": 9013,
      "▁Handel": 9014,
      "▁Großen": 9015,
      "▁direct": 9016,
      "▁kommun": 9017,
      "▁weib": 9018,
      "▁specified": 9019,
      "▁Richter": 9020,
      "▁NOT": 9021,
      "▁Kritik": 9022,
      "ethode": 9023,
      "▁HTML": 9024,
      "▁Priester": 9025,
      "((": 9026,
      "Do": 9027,
      "GB": 9028,
      "baum": 9029,
      "daten": 9030,
      "lust": 9031,
      "oß": 9032,
      "zog": 9033,
      "üste": 9034,
      "▁..": 9035,
      "ente": 9036,
      "▁Sicht": 9037,
      "orfer": 9038,
      "▁bind": 9039,
      "else": 9040,
      "▁Brief": 9041,
      "▁mo": 9042,
      "det,": 9043,
      "▁Eber": 9044,
      "▁Kosten": 9045,
      "▁Pod": 9046,
      "real": 9047,
      "▁Lor": 9048,
      "▁Video": 9049,
      "▁Jung": 9050,
      "▁1915": 9051,
      "ürgen": 9052,
      "▁li": 9053,
      "▁given": 9054,
      "▁bewer": 9055,
      "▁One": 9056,
      "▁Up": 9057,
      "▁Veränder": 9058,
      "▁Refer": 9059,
      "weite": 9060,
      "▁is\n": 9061,
      "▁lebt": 9062,
      "ritz": 9063,
      "ibel": 9064,
      "▁export": 9065,
      "land.": 9066,
      "▁Grand": 9067,
      "▁\\frac{4": 9068,
      "linien": 9069,
      "▁---": 9070,
      "▁besetz": 9071,
      "▁Stadtlohn": 9072,
      "▁wiederhol": 9073,
      "###################\n": 9074,
      "▁Parther": 9075,
      "▁list\n": 9076,
      "▁Phot": 9077,
      "-Ges": 9078,
      "▁contract": 9079,
      "args": 9080,
      "▁Polen": 9081,
      "▁entwickelt": 9082,
      "▁Weiteren": 9083,
      "frist": 9084,
      "(x,": 9085,
      "▁römisch-kathol": 9086,
      "▁wollte": 9087,
      "▁Ruhe": 9088,
      "▁Heiligen": 9089,
      "windigkeit": 9090,
      "▁Gattung": 9091,
      "▁Qualifikation": 9092,
      "▁Großbritannien": 9093,
      "▁Düsseldorf": 9094,
      "▁passed": 9095,
      "▁sodass": 9096,
      "/s": 9097,
      "100": 9098,
      "2:": 9099,
      "Data": 9100,
      "EO": 9101,
      "IG": 9102,
      "WAR": 9103,
      "_d": 9104,
      "aster": 9105,
      "hain": 9106,
      "krieges": 9107,
      "rin": 9108,
      "sem": 9109,
      "t:": 9110,
      "ville": 9111,
      "zun": 9112,
      "▁rad": 9113,
      "▁ändern": 9114,
      "uns": 9115,
      "unsch": 9116,
      "eiden": 9117,
      "▁ac": 9118,
      "▁something": 9119,
      "▁wod": 9120,
      "▁völ": 9121,
      "ged": 9122,
      "ather": 9123,
      "▁Far": 9124,
      "▁Prax": 9125,
      "amples": 9126,
      "▁Grie": 9127,
      "▁Rie": 9128,
      "▁Wehr": 9129,
      "▁Wagen": 9130,
      "schütz": 9131,
      "▁erreichen": 9132,
      "▁Hell": 9133,
      "▁Nic": 9134,
      "▁Noch": 9135,
      "▁3)\n": 9136,
      "▁Oster": 9137,
      "en,\n": 9138,
      "▁Schä": 9139,
      "▁Verantwort": 9140,
      "▁{\"": 9141,
      "▁Arn": 9142,
      "▁abgeschlossen": 9143,
      "▁82": 9144,
      "▁Aufbau": 9145,
      "ympi": 9146,
      "▁\\frac{16": 9147,
      "acro": 9148,
      "▁genommen": 9149,
      "▁berühm": 9150,
      "▁1950er": 9151,
      "-Al": 9152,
      "▁1930": 9153,
      "ataill": 9154,
      "▁Example": 9155,
      "0.000": 9156,
      "256": 9157,
      "▁3.14": 9158,
      "▁1924": 9159,
      "▁einzig": 9160,
      "▁Gericht": 9161,
      "▁Europameister": 9162,
      "inkel": 9163,
      "▁uint": 9164,
      "▁else\n": 9165,
      "▁train": 9166,
      "▁regul": 9167,
      "▁Laur": 9168,
      "▁jeweiligen": 9169,
      "▁Bürgermeister": 9170,
      "▁Gewicht": 9171,
      "fälle": 9172,
      "────────────────": 9173,
      "▁Internet": 9174,
      "▁Verkehrs": 9175,
      "▁Output": 9176,
      "▁Erzbischof": 9177,
      "▁verpflich": 9178,
      "▁wodurch": 9179,
      "(int": 9180,
      ".\"": 9181,
      ".h": 9182,
      "68": 9183,
      "OUT": 9184,
      "_set": 9185,
      "ektiv": 9186,
      "gu": 9187,
      "lant": 9188,
      "talk": 9189,
      "yer": 9190,
      "zeigen": 9191,
      "äb": 9192,
      "äst": 9193,
      "inent": 9194,
      "std": 9195,
      "anad": 9196,
      "arrei": 9197,
      "▁Send": 9198,
      "▁square": 9199,
      "▁weg": 9200,
      "urg": 9201,
      "▁Bit": 9202,
      "▁fung": 9203,
      "▁tran": 9204,
      "▁Kass": 9205,
      "▁Krank": 9206,
      "▁2;": 9207,
      "▁Pers": 9208,
      "▁Pak": 9209,
      "▁Play": 9210,
      "▁hol": 9211,
      "▁CN": 9212,
      "▁plan": 9213,
      "▁lau": 9214,
      "▁Zeiten": 9215,
      "▁4)": 9216,
      "spann": 9217,
      "sprechen": 9218,
      "t,\n": 9219,
      "serb": 9220,
      "angle": 9221,
      "▁refer": 9222,
      "▁umfang": 9223,
      "ateg": 9224,
      "▁Alten": 9225,
      "▁scheiter": 9226,
      "▁schied": 9227,
      "theit": 9228,
      "▁1980er": 9229,
      "leicht": 9230,
      "▁Spielzeit": 9231,
      "ipedia": 9232,
      "iums": 9233,
      "▁Print": 9234,
      "gendes": 9235,
      "▁Roger": 9236,
      "länder": 9237,
      "▁statt.\n": 9238,
      "▁Nationalsozial": 9239,
      "▁obj": 9240,
      "▁errichtet.": 9241,
      "▁Gelände": 9242,
      "▁startete": 9243,
      "▁datab": 9244,
      "▁Sinne": 9245,
      "achstum": 9246,
      "▁Geburt": 9247,
      "▁Louis": 9248,
      "verwaltung": 9249,
      "BO": 9250,
      "False": 9251,
      "ME": 9252,
      "_m": 9253,
      "_n": 9254,
      "bibliothek": 9255,
      "eed": 9256,
      "flächen": 9257,
      "klass": 9258,
      "pend": 9259,
      "tum": 9260,
      "ugen": 9261,
      "zon": 9262,
      "äß": 9263,
      "ieur": 9264,
      "an.": 9265,
      "▁Sinn": 9266,
      "▁Aff": 9267,
      "ato": 9268,
      "▁Bein": 9269,
      "▁Boolean": 9270,
      "▁eindeut": 9271,
      "rot": 9272,
      "▁Falle": 9273,
      "▁Fabrik": 9274,
      "▁EM": 9275,
      "▁EX": 9276,
      "▁Kredit": 9277,
      "▁nomin": 9278,
      "▁2)\n": 9279,
      "▁Ist": 9280,
      "illen": 9281,
      "▁hash": 9282,
      "ing.\n": 9283,
      "▁alloc": 9284,
      "▁\"con": 9285,
      "ürk": 9286,
      "▁leich": 9287,
      "▁verur": 9288,
      "kt,": 9289,
      "▁Opfer": 9290,
      "▁aufruf": 9291,
      "▁Schreib": 9292,
      "ula": 9293,
      "ulen": 9294,
      "ation:": 9295,
      "▁Verfahren": 9296,
      "▁Verhältnis": 9297,
      "agraph": 9298,
      "▁Bew": 9299,
      "quer": 9300,
      "arium": 9301,
      "icks": 9302,
      "arbeite": 9303,
      "▁Konzep": 9304,
      "ksam": 9305,
      "name:": 9306,
      "▁1926": 9307,
      "▁Box": 9308,
      "ERS": 9309,
      "▁Darstellung": 9310,
      "▁größere": 9311,
      "▁südlichen": 9312,
      "rategie": 9313,
      "▁Festival": 9314,
      "▁Bernhard": 9315,
      "▁declared": 9316,
      "▁zusätzliche": 9317,
      "▁automatisch": 9318,
      "▁nächste": 9319,
      "(n)": 9320,
      "▁Status": 9321,
      "▁Ebene": 9322,
      "▁Kommunikation": 9323,
      "▁False\n": 9324,
      "▁moral": 9325,
      "▁Gustav": 9326,
      "ategory": 9327,
      "98": 9328,
      "TW": 9329,
      "This": 9330,
      "cop": 9331,
      "s-": 9332,
      "sein": 9333,
      "uint": 9334,
      "vier": 9335,
      "vater": 9336,
      "wir": 9337,
      "▁öffentlich": 9338,
      "▁Sing": 9339,
      "▁deriv": 9340,
      "▁Dank": 9341,
      "▁Domin": 9342,
      "▁Barb": 9343,
      "▁Bonn": 9344,
      "user": 9345,
      "roh": 9346,
      "▁zeich": 9347,
      "▁zero": 9348,
      "▁M.": 9349,
      "▁Mey": 9350,
      "▁tag": 9351,
      "▁traf": 9352,
      "▁takes": 9353,
      "▁(3": 9354,
      "▁Ganz": 9355,
      "▁Raku": 9356,
      "▁Lok": 9357,
      "▁Link": 9358,
      "▁Ident": 9359,
      "oman": 9360,
      "▁Nad": 9361,
      "▁C-": 9362,
      "▁kämpf": 9363,
      "▁1912": 9364,
      "▁geeig": 9365,
      "▁\"$": 9366,
      "▁vern": 9367,
      "▁33\n": 9368,
      "▁Schrif": 9369,
      "▁Verlauf": 9370,
      "▁Erb": 9371,
      "▁Erstellung": 9372,
      "vertrag": 9373,
      "▁60\n": 9374,
      "▁},\n": 9375,
      "}{13}": 9376,
      "▁\\frac{3": 9377,
      "▁etc.": 9378,
      "ianischen": 9379,
      "▁beginnen": 9380,
      "weder": 9381,
      "▁Schwar": 9382,
      "▁großer": 9383,
      "▁lists": 9384,
      "▁1921": 9385,
      "▁Beteil": 9386,
      "▁teil.": 9387,
      "-Code": 9388,
      "▁Studio": 9389,
      "▁interface": 9390,
      "▁Hohen": 9391,
      "▁filter": 9392,
      "▁aktuelle": 9393,
      "▁bildete": 9394,
      "▁errichtet": 9395,
      "andeur": 9396,
      "▁ganzen": 9397,
      "▁Gründen": 9398,
      "▁equal": 9399,
      "versammlung": 9400,
      "▁know": 9401,
      "-Inst": 9402,
      "▁------------------------------------------------": 9403,
      "▁property": 9404,
      "▁versteck": 9405,
      "▁Ressourcen": 9406,
      "▁Elisabeth": 9407,
      "-19": 9408,
      "Con": 9409,
      "b.": 9410,
      "cus": 9411,
      "krit": 9412,
      "macht": 9413,
      "trem": 9414,
      "witz": 9415,
      "zul": 9416,
      "äger": 9417,
      "öse": 9418,
      "üm": 9419,
      "üll": 9420,
      "–200": 9421,
      "▁dunk": 9422,
      "ston": 9423,
      "steiger": 9424,
      "▁sm": 9425,
      "atte": 9426,
      "▁member": 9427,
      "▁Mand": 9428,
      "▁tief": 9429,
      "▁Ke": 9430,
      "▁Key": 9431,
      "▁Klav": 9432,
      "▁natur": 9433,
      "▁21\n": 9434,
      "▁Prü": 9435,
      "andte": 9436,
      "andlung": 9437,
      "oment": 9438,
      "▁Nam": 9439,
      "aben": 9440,
      "▁gült": 9441,
      "▁Zuf": 9442,
      "▁Zweck": 9443,
      "▁aufgelöst": 9444,
      "▁ausgeb": 9445,
      "spir": 9446,
      "endes": 9447,
      "server": 9448,
      "anges": 9449,
      "▁Sprachen": 9450,
      "os,": 9451,
      "▁arr": 9452,
      "ogle": 9453,
      "▁entschieden": 9454,
      "ustom": 9455,
      "ktions": 9456,
      "▁9,": 9457,
      "▁Ausnahme": 9458,
      "ife": 9459,
      "hoff": 9460,
      "▁170": 9461,
      "▁Voraus": 9462,
      "▁Theodor": 9463,
      "▁1.6.": 9464,
      "▁hinzuf": 9465,
      "▁Adolf": 9466,
      "prochen": 9467,
      "▁ausgeführt": 9468,
      "▁ausgestat": 9469,
      "outine": 9470,
      "▁Arbeiter": 9471,
      "▁worden.": 9472,
      "▁verwendet.": 9473,
      "tret": 9474,
      "▁einzigen": 9475,
      "▁trug": 9476,
      "▁(190": 9477,
      "▁Grundlage": 9478,
      "▁Blatt": 9479,
      "▁Klim": 9480,
      "▁Variables": 9481,
      "▁Instr": 9482,
      "▁Niederlage": 9483,
      "▁genannt.": 9484,
      "urther": 9485,
      "▁Bahnstrecke": 9486,
      "▁Zahlungs": 9487,
      "▁Information": 9488,
      "▁arbeitet": 9489,
      "▁starken": 9490,
      "jährige": 9491,
      "▁lines": 9492,
      "ühlen": 9493,
      "▁Gründer": 9494,
      "▁~~": 9495,
      "▁AND": 9496,
      "▁sicherzustellen,": 9497,
      "▁Design": 9498,
      "▁Offizier": 9499,
      "▁automatically": 9500,
      "▁lokalen": 9501,
      "▁verheirate": 9502,
      "▁every": 9503,
      "cfoutput": 9504,
      "(p": 9505,
      "-lang": 9506,
      "58": 9507,
      "LO": 9508,
      "del": 9509,
      "iate": 9510,
      "jan": 9511,
      "kont": 9512,
      "volle": 9513,
      "zusch": 9514,
      "▁digit": 9515,
      "arische": 9516,
      "▁session": 9517,
      "▁Aud": 9518,
      "▁wähl": 9519,
      "it\n": 9520,
      "itute": 9521,
      "▁Bin": 9522,
      "▁Ban": 9523,
      "▁Bert": 9524,
      "▁mer": 9525,
      "▁mal": 9526,
      "▁fra": 9527,
      "▁för": 9528,
      "▁title": 9529,
      "empl": 9530,
      "▁East": 9531,
      "▁Kra": 9532,
      "▁(list": 9533,
      "▁Gal": 9534,
      "▁Window": 9535,
      "▁Tie": 9536,
      "▁ermittel": 9537,
      "▁erhalten.": 9538,
      "▁Lager": 9539,
      "---\n": 9540,
      "▁ID": 9541,
      "▁Haut": 9542,
      "▁push": 9543,
      "▁later": 9544,
      "▁3:": 9545,
      "▁Ok": 9546,
      "elles": 9547,
      "ist,": 9548,
      "▁43\n": 9549,
      "▁49\n": 9550,
      "sender": 9551,
      "▁Eröff": 9552,
      "▁Ans": 9553,
      "ien.\n": 9554,
      "ehen,": 9555,
      "▁übersch": 9556,
      "odes": 9557,
      "ungen.\n": 9558,
      "▁werden\n": 9559,
      "▁78": 9560,
      "▁abger": 9561,
      "▁10,": 9562,
      "▁Auswirkungen": 9563,
      "tragen.": 9564,
      "▁These": 9565,
      "exp": 9566,
      "leisch": 9567,
      "zeichnungen": 9568,
      "▁Konzept": 9569,
      "▁Essen": 9570,
      ".con": 9571,
      "mann,": 9572,
      "▁gesetz": 9573,
      "Inter": 9574,
      "▁Formen": 9575,
      "mitglied": 9576,
      "füll": 9577,
      "▁benach": 9578,
      "▁Parteien": 9579,
      "▁Kontrolle": 9580,
      "▁example,": 9581,
      "▁?-": 9582,
      "▁heraus,": 9583,
      "▁erstellt": 9584,
      "▁numer": 9585,
      "▁ermöglicht": 9586,
      "▁wichtigsten": 9587,
      "acci": 9588,
      "aidsch": 9589,
      "▁entsprechenden": 9590,
      "▁mutable": 9591,
      "▁Nikol": 9592,
      "▁Punkten": 9593,
      "▁potenziel": 9594,
      "serbaidsch": 9595,
      "/19": 9596,
      "_array": 9597,
      "eq": 9598,
      "ft,": 9599,
      "hoch": 9600,
      "hile": 9601,
      "kunde": 9602,
      "like": 9603,
      "trit": 9604,
      "uage": 9605,
      "ée": 9606,
      "▁ü": 9607,
      "inue": 9608,
      "straß": 9609,
      "stitution": 9610,
      "anal": 9611,
      "▁Sur": 9612,
      "tegers": 9613,
      "▁Agen": 9614,
      "▁Attrib": 9615,
      "▁Bom": 9616,
      "▁Binnen": 9617,
      "▁More": 9618,
      "▁26\n": 9619,
      "▁(=": 9620,
      "▁Glas": 9621,
      "▁Rollen": 9622,
      "▁Wander": 9623,
      "▁erinn": 9624,
      "▁Hör": 9625,
      "▁Himm": 9626,
      "▁hätte": 9627,
      "▁Viele": 9628,
      "▁catch": 9629,
      "▁phil": 9630,
      "▁\"Y": 9631,
      "reiber": 9632,
      "▁ist\n": 9633,
      "▁Verbr": 9634,
      "spart": 9635,
      "rian": 9636,
      "laim": 9637,
      "▁unterschei": 9638,
      "▁[]\n": 9639,
      "▁entry": 9640,
      "▁86": 9641,
      "▁90\n": 9642,
      "ne.": 9643,
      "geld": 9644,
      "▁Abitur": 9645,
      "▁könig": 9646,
      "▁They": 9647,
      "leis": 9648,
      "▁type\n": 9649,
      "▁Marien": 9650,
      "▁Stefan": 9651,
      "▁erhöh": 9652,
      "▁verbin": 9653,
      "▁Klaus": 9654,
      "▁quer": 9655,
      "▁größeren": 9656,
      "▁sonst": 9657,
      "▁nahmen": 9658,
      "liste": 9659,
      "▁genannten": 9660,
[...]
